02
ff
0d
fb
fc
f8
00
04
08
ff
fc
fe
01
06
01
02
fb
fa
06
fb
07
fc
02
fc
04
08
00
fb
06
06
fc
fc
0e
00
01
f8
fa
01
fd
fd
01
ff
fb
fb
f5
f8
05
02
08
fe
f9
fd
03
fe
fe
f9
fb
f6
fb
f9
f9
fc
03
fa
06
01
09
01
fa
03
fd
f7
e8
db
e3
de
e2
da
ee
e5
ed
f6
00
08
09
f7
fb
f3
f9
f6
05
f9
05
05
01
fa
04
fb
f8
e5
e9
e1
df
eb
ea
e5
ec
f1
ed
e7
eb
f0
ed
f7
ff
f4
fa
fc
fd
fa
05
05
01
fd
fb
fd
f9
f8
fd
00
f9
f9
01
01
03
05
f9
fb
02
fe
fd
fa
f5
f4
f5
fd
00
fc
f7
fc
fb
06
00
fa
04
fd
f8
00
fd
ff
f6
04
08
04
fa
f8
f9
06
03
07
01
fe
f9
f2
f1
eb
f4
f7
00
00
fc
f9
f8
ff
f6
ff
f4
f2
fc
f6
f4
ef
fb
f2
fd
fe
ff
f1
fc
f1
f5
f9
f0
f0
f0
e9
ed
f0
04
07
05
fa
f4
fc
fc
ef
f2
f1
f6
ec
ea
e9
e4
f3
f3
ed
ee
ec
e7
e5
ee
e8
e5
e9
ea
ed
ea
ec
f4
fb
f5
03
fc
02
f3
f5
fb
fa
e9
f0
f0
e8
ea
ec
e7
ee
eb
ef
f6
f1
e5
e3
e3
df
df
e7
f0
e6
ef
f9
04
fd
00
ff
e8
ec
f1
ef
e9
e5
e2
e3
f0
e9
ec
f5
fa
fd
fb
f4
e2
eb
ee
e5
de
eb
e7
da
e5
fc
05
04
03
f0
dc
ee
fa
f4
ec
f0
ea
ed
f6
fc
00
f4
05
fa
fe
fb
ee
f6
e6
e4
e2
dd
e9
e0
f0
03
ff
fd
f5
f3
e9
ec
ef
f8
f6
f8
f9
f5
f8
fb
f7
fd
fb
fa
01
f7
fa
f3
f0
ee
d9
da
ea
e2
e5
01
0c
01
fa
e9
e4
f2
f5
f4
f8
04
fc
09
01
fe
ee
ea
ea
f6
f4
fc
04
ff
f9
fc
ed
de
ec
e1
e3
00
05
05
f8
f0
ea
ec
f2
fa
03
00
0d
07
05
f7
ec
de
df
e8
f9
fc
02
13
06
f8
e9
e7
ee
e1
dc
fa
00
00
fc
e4
f1
f7
f4
fa
04
09
11
17
1c
0d
ed
df
e0
ee
08
16
1b
19
0b
00
f0
e7
ec
d9
e0
f8
fc
f9
fe
db
ef
ee
f1
fe
03
11
1d
1b
27
12
fe
f7
fa
02
18
26
25
1d
0e
07
f1
f2
eb
e4
e3
01
0c
fe
fa
ed
f1
eb
ee
fd
00
0f
16
1d
25
0d
fd
01
05
14
22
23
22
1c
0e
02
ef
e7
f4
e5
e0
06
09
00
f0
ea
e8
e7
ef
ef
03
14
19
1d
12
04
f5
f9
05
17
1e
2c
23
18
10
fb
fc
f5
f6
f5
e7
02
fd
fd
f5
e9
f5
ee
eb
ea
f7
0e
16
14
11
fe
fa
0a
09
18
20
23
21
13
0a
02
ec
f6
ef
ee
f8
0a
ff
ff
f0
e7
e7
e4
e6
df
f8
02
00
06
0f
09
0a
0b
1c
1a
2a
22
1e
18
04
f5
ef
f7
ec
f5
eb
00
00
fd
fc
eb
f4
de
dd
e3
f0
f7
f5
05
03
09
05
0e
1a
1b
17
1d
11
11
fa
f3
e6
ed
f6
fa
f8
02
fc
03
fe
f4
eb
ee
e4
da
e0
e6
f5
f0
00
05
fe
0b
0c
12
15
05
11
0b
01
ed
ee
ee
f4
fb
fe
03
f8
00
04
f1
eb
ea
ec
dc
e0
ef
f1
f5
ea
f0
fd
03
03
02
06
0b
fd
f9
00
f0
f0
fa
f8
fb
fb
00
08
fd
03
00
ee
fb
eb
eb
ea
e6
e0
eb
ea
e3
e9
f9
f6
fb
f5
f8
fa
f6
f1
f7
f4
ef
ef
f2
06
04
fe
fc
04
f4
ed
fd
f1
fa
f6
e8
ee
dd
de
e0
db
ea
e3
ee
e7
f6
f2
ed
f6
f3
ef
e1
ec
fd
03
07
06
fd
04
ff
ef
fb
fc
fd
ef
ed
e8
e2
e3
d8
dd
d4
df
e0
e0
e7
eb
f5
e6
dc
de
e4
fe
f6
fe
fe
fe
fe
ff
f9
f9
fc
f7
ee
e6
f0
e7
e8
e3
e0
e2
e1
da
d7
eb
e0
de
e2
dd
dd
ed
f6
03
0b
03
01
00
f8
03
ff
02
f7
f6
ec
dc
dc
d9
da
da
d3
c8
cc
c9
c2
c3
c7
d1
d8
dd
e7
f7
fc
0d
08
0a
fd
03
02
f7
00
ff
fb
f6
00
fd
ef
e5
cb
c5
ca
be
b7
b6
cf
cf
de
f6
f8
f8
ff
fc
01
09
fe
fc
00
00
02
fe
00
00
fc
fc
02
01
fe
f9
03
f8
f4
f5
fe
f6
fb
02
fa
02
ff
fd
f8
02
01
fb
ff
ff
01
f7
05
fa
f3
ff
f7
0b
fa
fe
fa
01
00
f1
f9
0a
0b
04
f0
f8
ff
fb
fd
f5
f5
fa
fa
f4
0d
fb
f5
04
f9
f6
f4
fa
f5
05
f5
fb
fc
f5
f3
f2
f6
fc
f5
f8
ed
eb
f5
fe
fe
ee
ef
fc
fd
02
03
f2
04
0c
fb
fd
f9
fb
f2
f7
fd
f7
fe
f9
09
11
12
0c
0e
1c
1f
0b
01
00
02
04
fd
f3
fc
09
05
ff
fd
00
fe
f5
f8
fb
fa
fd
03
0b
11
16
1f
24
33
2f
2d
2b
2d
21
25
18
10
0c
07
fd
01
fb
03
f8
f9
00
fa
09
06
fd
f1
04
05
09
1c
16
0b
fe
04
01
ff
ed
fb
f6
05
f6
01
04
06
05
03
f8
f7
fa
fe
f7
ff
fa
05
ff
f8
f9
00
fe
f1
fa
e8
ef
f1
f4
f5
ec
fd
f1
ea
f5
ea
f3
fd
f9
02
0b
fc
f6
f2
01
fc
fc
00
0a
0e
01
0f
02
fb
f3
f5
f4
f3
e7
f6
f3
f2
f0
f3
e5
f3
e8
ef
f3
09
0f
01
fd
01
0c
0a
02
fc
ff
03
07
03
f0
ec
ed
e2
e1
dd
de
e9
e3
e9
e8
dd
de
e1
e2
e1
e5
f3
ff
03
00
0b
f8
f9
fa
fc
07
0e
08
ef
ea
e7
d7
de
dc
d3
dc
d9
da
e3
e4
da
e2
d7
e2
e1
d7
db
fd
10
0a
fd
ff
fc
ee
ff
14
11
f3
e9
e2
da
df
d8
d2
d9
d9
e2
e1
dc
e1
e0
dd
e7
d3
d5
d0
c7
ed
17
f7
f5
05
04
fd
15
13
fb
ee
e8
e0
e0
d7
e4
e5
e3
e4
ec
e4
e8
e4
df
df
e8
de
ca
c6
c5
ec
16
03
fa
ff
03
ec
f8
14
fc
e1
e4
e7
e5
e2
e9
eb
de
e2
e2
e8
ec
e6
e1
ed
e4
e2
d9
c2
c3
d6
10
05
f7
e9
f2
fc
16
08
f5
dd
e6
f0
f1
e7
f0
f2
e5
da
ca
d0
d4
e4
e7
ea
e9
e7
e4
c7
c1
da
fc
07
ff
00
fb
f8
14
0d
ec
d9
e5
e3
ed
f2
ed
f9
e4
d2
cf
c6
d4
e3
e8
f9
fc
f3
e3
dd
d1
e8
01
18
f6
f6
f0
ed
16
fe
de
d6
df
f2
ef
fb
00
05
f1
dc
dd
d8
d9
f8
06
05
fe
f1
e4
d5
d7
e9
17
06
f8
f5
fb
f9
1d
f9
e6
da
e3
e9
ed
03
05
0c
f5
e6
f1
fb
f8
0c
1b
0b
0b
fd
ea
d3
d1
d8
0e
f6
f8
f2
f0
06
11
fa
e2
db
dd
f0
fd
04
06
0c
f4
e4
ee
f9
06
19
1d
15
0d
02
e9
e3
d1
e0
10
01
f8
fe
fc
f8
12
fb
df
d8
e6
e4
f1
fe
ff
02
ee
dd
f6
fa
06
22
1d
14
08
f8
ef
e4
dd
ea
02
fd
ea
fd
eb
fe
09
f3
e0
ce
d9
e4
f4
fd
03
01
f5
f9
fe
0d
17
2a
25
18
08
fb
f0
e3
dd
f2
09
f7
f5
fe
f9
00
0b
f4
de
c8
cd
db
f0
f5
fb
09
0b
06
0f
16
20
25
1d
18
08
f3
ec
e1
df
f9
09
03
05
01
fd
01
0c
fc
dd
d0
cb
d0
da
e6
ee
f9
03
04
0e
14
19
14
16
0a
00
f5
f1
ef
f1
f1
01
02
f2
fe
f7
f7
f9
f5
e7
ce
d4
ca
da
df
ec
ed
f7
fa
09
0d
10
0e
07
0b
f2
f0
ee
f8
f1
f2
f1
fa
07
0e
fc
fe
f9
00
f2
e8
d5
d4
dd
d9
e0
e4
f0
f8
f7
fa
06
04
06
00
f5
fa
ea
f9
f9
0c
f6
ff
f8
f5
f3
f8
01
0b
f7
ef
e8
e7
e0
db
e4
db
e7
e5
e7
e8
f7
f7
ff
fc
f9
f7
f7
11
07
00
f7
03
fd
06
01
ed
fe
06
0a
f3
f2
f2
ec
dc
dc
db
da
d5
d6
d3
dd
e2
db
ec
f3
07
14
19
16
0a
04
e7
ff
ff
f4
04
fc
0f
10
03
03
f3
eb
e0
de
de
d2
d2
cd
cd
d6
d9
e6
fd
0e
1f
1a
06
03
fc
04
fc
fa
f8
07
fa
09
00
04
16
11
0b
16
09
01
04
ec
f4
fe
f3
02
0e
24
1b
20
1b
1b
04
f2
f6
f1
f7
f7
07
01
01
f4
ef
fc
16
09
03
17
15
1f
25
20
1a
20
2d
21
15
20
0a
05
fd
f7
fe
fd
f7
f7
03
00
fb
f3
f4
05
0d
f7
03
ef
f4
fd
04
03
ed
f0
f6
00
ee
f8
f1
03
00
f1
f6
ec
f5
01
02
f8
f1
ed
fa
f2
f3
03
02
f4
f6
fd
fd
f1
f8
ef
ff
01
f8
f1
00
f0
0b
08
fb
ef
f5
fe
f7
fe
f8
f5
f9
02
f8
07
07
02
09
ff
fe
03
06
08
fb
05
fe
06
01
fa
fe
fe
08
02
03
fc
fe
00
07
00
01
01
f6
01
01
fd
08
ff
0f
fc
00
fa
f7
03
07
09
fc
ff
f9
00
f5
03
0e
fb
fa
03
01
03
0d
fa
f4
f4
f8
fd
02
fe
07
fc
08
0c
f8
fe
f6
ff
f7
f2
f2
e0
e8
de
e4
dc
ee
ef
ee
fc
f5
fa
0b
f9
f4
f7
f9
fa
f7
03
fb
03
fe
fe
fd
ff
f3
e8
e3
e0
e1
eb
e5
ed
f4
ea
e1
e3
e9
f3
eb
f2
fe
04
fb
fa
01
ff
03
fe
f6
fd
fe
00
fd
fe
00
f6
f0
f9
fe
06
fd
01
00
fc
ff
f9
ff
f7
fb
fa
f7
f5
fb
f9
fb
00
fb
f8
06
fb
fa
00
fd
fc
07
fc
02
00
fb
ff
04
04
07
07
fd
fc
fd
f8
f8
f4
fb
f8
f2
f5
f8
00
fb
fd
fd
03
fc
fb
f4
fb
fe
ee
ef
f3
f7
fb
f4
f3
fb
fa
fb
f6
fb
f5
f9
ec
f7
f0
e3
fa
f8
07
00
fc
02
fc
fa
fc
ee
fb
f2
eb
eb
ee
e3
e3
f0
ec
f4
f2
f5
f8
ec
ed
f3
ec
ec
e8
f0
ee
f9
fb
fd
ff
00
05
f2
f1
f7
f3
eb
ec
e9
e0
e4
e7
e9
f1
f9
f7
fe
fc
f6
f2
f7
e4
ed
ee
ef
e5
f1
06
fc
03
07
f2
e9
eb
f7
e8
ee
ea
e5
e7
e3
e0
f4
f7
fe
f9
fc
f5
fd
fb
f9
f1
df
df
e5
dd
f4
01
06
01
f9
f1
eb
f2
f2
ea
e4
e4
eb
e5
f1
f4
f4
02
02
07
00
f6
fa
fb
f2
f1
d8
d6
e3
dd
eb
00
02
fb
00
f3
e8
f8
f3
e9
e8
ec
ec
f4
f6
fe
f8
f8
02
06
01
04
f8
03
f5
e7
de
e2
ee
e3
e9
fe
ff
fd
fb
f6
ed
ea
ef
eb
f2
ed
f9
f2
01
f8
df
db
ed
f4
fc
f6
05
01
fe
f1
e9
e2
e1
e3
e4
f7
04
06
f8
e4
e8
e7
eb
f2
fe
f9
02
fc
fe
e7
de
d6
d4
ea
fd
02
0b
08
02
f6
ec
dc
e2
e0
dc
fb
03
ff
fb
df
e8
f3
f6
f0
f3
fa
08
11
11
f4
d9
d1
da
f0
01
06
10
0a
06
fa
ec
ed
ea
de
e1
fe
05
f8
ed
df
e9
e6
ed
f2
03
08
11
17
14
03
e8
e4
ea
fc
0c
1b
1d
0f
10
00
f2
ea
f3
e4
de
fb
03
ff
f4
e5
e8
e9
e9
f7
ff
0a
0d
19
1a
01
ea
eb
f0
f7
17
1d
23
1d
0d
06
ee
f4
fe
ec
dc
ff
00
01
ec
e9
e8
e4
e5
f2
f6
03
12
19
16
f3
ea
e1
e8
00
12
17
12
0c
0d
ff
ee
ea
f2
ec
e6
0c
02
fe
01
e5
e7
e5
df
ef
01
03
0c
16
06
07
f1
f8
f4
02
17
1c
1a
12
00
f5
f1
ef
f3
ea
e9
0a
f7
07
f9
ed
f5
df
df
e6
f3
f6
0d
08
0e
10
06
06
08
17
1a
15
0a
00
01
f8
f0
e7
f5
f2
f8
02
00
f9
fd
e6
f3
da
db
d8
e5
fb
fb
fe
11
12
0c
06
0a
0c
14
0a
05
f9
f3
f2
ee
ee
ed
fa
f9
f7
f9
fe
fe
f1
f6
e6
e5
dc
e5
ef
f3
fb
fe
08
08
05
01
0d
03
06
04
f3
f3
f2
f3
ec
fa
f0
f5
04
f6
08
ff
f4
fb
f6
e8
e0
eb
ed
fb
f8
fd
03
03
f9
04
01
f6
00
fa
f2
ec
ee
e7
f4
fb
f9
06
fe
00
fe
ff
fb
f8
f3
ec
f5
f5
f2
ec
f1
f2
fc
f7
f7
f7
fa
f6
fc
f8
eb
f1
eb
eb
f2
f1
f5
09
fd
fe
ff
ff
f5
f8
f3
f2
f5
fb
f4
f2
ed
ef
ee
ed
e5
e2
e7
ef
f2
ee
f7
f1
ed
e7
e5
f9
fd
05
00
fb
02
05
fb
f1
eb
fa
f2
ee
f5
e9
ed
dd
e2
df
d2
dd
e0
ea
f2
eb
ea
f2
de
dd
ef
f7
fe
08
07
fc
01
f5
f9
fc
f0
ee
f1
ec
e5
e5
dd
e1
d6
db
d6
d1
d7
db
de
df
d1
cf
de
ec
f9
02
07
f6
fb
fb
fa
fe
f8
03
f4
f8
e1
da
d3
c7
d1
c4
cc
be
c4
c8
c5
ba
ba
d0
d6
e5
e7
f1
fa
0c
04
fb
fe
00
02
02
f9
00
fa
00
f3
fb
f8
e9
d9
d7
d5
c8
c4
c9
da
e0
e0
eb
f8
fc
f4
05
fd
02
04
00
06
07
fc
09
06
03
fd
07
fd
00
09
03
04
f6
03
fa
02
01
02
04
fd
05
03
05
fc
00
03
05
05
00
09
f0
f2
f1
f4
f4
f8
fc
fe
ec
ef
f1
fb
f4
f6
00
fc
ed
f7
fb
fa
fc
ff
ee
f8
e8
f6
f9
00
f7
fc
00
f8
ff
fa
fd
f9
fa
03
09
f0
f0
e9
f1
fa
fe
02
fe
ed
e5
ed
f5
ee
fb
e7
f0
f6
01
00
f8
05
f5
f8
f6
f3
fb
eb
f1
f1
ec
fd
f0
f9
04
03
fe
0b
17
0f
0d
08
01
f5
05
f9
e9
ff
f8
ff
01
00
f5
f9
fa
f8
ec
f5
f2
fa
05
10
10
17
20
17
24
13
18
1b
18
18
0b
05
08
08
fb
01
f5
02
f5
f0
f5
04
00
f4
f2
f8
f7
fe
08
0e
0f
05
05
fe
03
fb
ec
f4
f4
fe
f8
f9
fa
07
05
05
f2
fe
f7
f3
f3
f9
00
0d
fc
01
07
10
03
fb
f1
ef
ee
f1
f9
fb
f7
f8
f2
f9
eb
ef
fe
fe
fb
02
00
fd
e4
02
00
04
f6
ff
04
06
12
03
05
fe
f3
f8
ec
ec
f3
f1
f5
ef
f9
fb
ef
eb
f2
ed
fa
11
12
f1
f7
f0
f1
fd
03
f3
05
08
0b
06
fa
fc
ee
f0
eb
e3
e8
ea
eb
ee
ef
ec
ee
e5
e7
f1
e9
03
19
08
ff
f0
01
fb
ec
fa
f6
ff
00
fe
ec
f2
e7
db
e5
e8
ec
ef
eb
ed
f8
ea
ee
e9
e9
e3
dd
ec
0e
12
0a
f6
fb
f4
eb
fe
10
05
fa
ed
e1
e8
dd
e9
f0
f0
f4
f5
04
0a
09
fb
f7
f3
e2
d6
d0
e0
fe
1f
ed
f5
f1
f2
fc
fc
22
09
ee
f0
e6
e7
e8
e7
f6
02
05
08
0e
0f
09
01
ff
f4
ea
e5
d2
d5
f3
11
fa
05
f7
f0
f4
0a
11
03
ec
ec
e6
ea
f9
02
01
0d
06
06
08
0e
0c
11
07
00
ee
ea
d1
c9
ea
1e
ff
f5
f3
f1
f0
01
16
fe
e6
f1
f9
f4
00
04
13
08
ff
fb
f7
fb
04
0b
14
0e
05
e8
da
ca
e5
0e
fc
fe
ed
fa
f7
1c
16
ef
e0
ee
f0
04
05
1d
1a
0c
fc
ec
f2
fc
14
0f
1c
15
06
ef
e5
d8
e8
0c
0c
00
fa
f7
fb
11
05
ea
d6
ed
f4
0a
12
28
35
10
0a
04
f3
06
21
32
24
25
0e
fd
eb
dd
fc
23
03
fc
f8
fb
00
22
f7
e6
da
e9
fb
05
20
2b
2e
25
0d
1d
11
12
28
39
2f
29
0f
f9
dd
d9
e7
1a
0d
f6
03
02
f9
0d
06
e7
e0
e5
f8
10
20
3b
38
16
03
17
1e
19
38
30
2c
1f
0b
f5
e2
db
e0
12
f7
ef
e9
f6
f6
0e
fb
e8
d9
e7
f7
14
20
2f
2a
11
00
0e
14
1c
39
37
2b
24
04
f8
e6
d4
e9
07
ff
ea
f3
f2
f0
0f
f7
e4
dd
da
f6
08
16
1b
1e
0f
05
0e
1d
26
2c
2b
23
13
01
ee
ef
db
f4
02
f5
ef
f9
01
00
04
f2
e6
d3
d3
eb
f9
08
17
18
12
13
1a
2a
2b
30
24
16
14
fd
f2
f2
e5
f7
01
05
f8
f5
fd
03
02
02
e5
d2
cc
dd
ef
fe
07
0d
1d
1b
17
23
1f
24
23
09
fe
fb
f6
e7
e9
fa
fe
fb
fc
fb
f5
fc
01
fd
e6
d2
ce
df
e3
f7
ff
01
fc
05
07
0c
1a
0e
08
04
fa
f7
ef
f2
f4
01
06
f7
fb
08
ef
f6
fa
00
e2
e4
d5
e0
e4
ef
e7
f6
ed
ee
f8
f7
f8
00
01
ff
fd
f8
f3
f3
f6
0c
f3
fa
f7
f1
f1
f9
05
01
f9
eb
e7
e3
e6
eb
df
db
dd
de
e4
ea
ee
eb
f3
f7
f2
ea
fc
ff
0a
10
f4
f6
f6
02
06
f9
04
10
fd
f1
eb
f0
e0
e1
d6
d7
ca
c3
cc
c3
cd
ce
e0
da
ed
00
0c
1b
18
fb
04
f5
fc
f5
eb
f9
f5
03
07
f7
fd
eb
e2
d9
d0
d6
cb
c2
c0
bb
bf
cc
e0
f5
00
13
1c
1a
f8
ff
f7
f6
f6
f2
fd
fa
ed
ff
0a
10
04
02
f3
e9
ec
e9
e7
db
dc
ea
ea
f8
0d
0c
1e
1e
1f
06
f5
f5
f8
06
ed
f2
fe
ee
f4
fe
0d
0a
0f
2a
35
29
2f
23
25
32
2b
35
3d
46
45
2c
14
03
09
ed
ea
f7
f2
fb
f5
f6
f5
02
fa
08
00
fe
f1
f4
02
0a
18
08
15
0e
20
08
0d
08
04
0a
01
f4
f4
ec
fd
fd
ee
f9
fe
f3
ef
f8
05
02
f6
f5
f7
ef
f6
fa
f7
f3
fb
01
ff
05
fe
fb
fa
04
e4
fc
f2
f9
f7
00
ee
f0
f3
01
0c
08
fe
0c
11
02
04
15
08
07
06
09
03
05
0a
05
0b
0e
10
0a
0b
13
13
0a
fd
0a
07
02
fd
0b
14
03
01
04
03
02
13
17
03
05
fd
0a
04
04
01
0b
11
0a
0c
13
04
09
0d
06
0c
0b
06
12
07
07
0f
0a
0b
01
13
15
0d
0a
0a
01
02
05
02
05
f8
f4
f2
fd
f2
fc
01
ff
09
06
09
0a
02
04
03
00
08
00
ff
08
0c
0d
06
0c
08
0c
04
08
f1
fc
ea
e7
f0
ea
f0
e9
fe
04
07
0a
fc
0a
0e
13
07
0a
06
04
0c
08
04
0e
0c
0c
0b
0d
0b
1e
10
1a
1c
1b
0e
0e
05
0f
01
00
fd
07
07
0e
0e
05
07
05
0e
0f
0e
09
0e
05
01
ff
07
08
1c
17
27
35
37
36
33
2d
22
1e
11
0a
0b
08
03
fa
03
0c
06
12
0e
fe
07
0c
0d
0e
05
f9
fe
f8
09
12
1f
33
3d
3a
3c
35
30
20
17
0d
05
fa
fe
f3
fd
02
0f
03
08
09
12
0e
07
0b
f1
f2
f2
f4
f0
f6
12
23
26
30
2d
2e
25
1f
10
fd
fb
f5
fd
fc
fa
0b
01
07
03
02
04
09
0b
04
fb
ef
e3
e6
d9
eb
ef
01
1a
20
28
29
20
1e
0e
03
fd
fb
fa
f2
01
fe
0c
0b
0e
0b
03
05
f8
f8
04
f6
de
e2
d2
d5
ee
fb
0d
22
1d
19
12
18
13
05
fe
fd
f7
f1
ed
02
05
03
0e
0c
0d
fa
fd
fb
ff
ef
ea
d5
cf
cd
e1
fd
14
26
23
1a
0f
05
0e
06
f5
fa
f2
e4
f8
0e
0f
0b
07
09
06
fe
fc
ff
f9
f0
f4
d1
c3
c2
d9
00
0c
1f
26
0b
fd
08
08
03
f2
fe
ee
ea
01
01
10
03
0d
06
05
fe
03
f7
fb
01
ea
cf
bc
af
d3
07
0f
20
20
02
f6
f5
f9
f2
fa
f1
ee
ea
ff
02
09
01
08
0b
02
04
03
fd
01
fe
ef
da
b0
ac
d8
0f
18
1f
20
f7
e2
e0
e5
f1
e8
ec
ef
f0
f6
0c
07
0f
01
0a
07
02
fe
ef
fb
f6
fa
d6
b8
ad
f8
27
2a
28
28
f3
da
d1
de
e9
e7
f0
eb
f0
0a
03
0b
04
0f
05
07
07
f8
f9
f0
f2
f6
d5
b7
cc
0c
2e
2a
2d
1f
f1
d4
cd
e6
ee
f1
ee
f1
09
01
0e
07
02
05
07
06
fa
f4
fe
f1
ea
e8
d2
c9
e3
1a
38
32
31
13
e0
bb
d9
f4
f9
f0
ff
fc
09
0d
fd
fe
03
0e
08
08
fb
02
00
fe
f6
e3
d5
e5
02
1c
2f
20
24
09
d2
c1
d7
f5
f4
fc
ff
ff
02
11
0c
03
0b
09
02
0b
f8
ff
fe
f5
f7
03
fd
fd
0f
1e
2e
25
0e
f3
d0
c7
d6
e9
00
fe
fe
f9
0a
05
13
10
09
07
05
02
05
fb
07
01
05
13
0d
05
1a
22
33
22
1e
fe
de
db
e6
f4
00
fe
fa
02
02
ff
08
13
06
0c
fd
02
fb
02
08
09
0a
0a
0a
09
1d
1c
2a
27
12
f6
e9
e3
f4
fc
fc
03
02
fa
01
0e
08
0e
0b
fe
01
07
f9
f8
07
06
0a
0c
08
13
11
16
21
0e
05
fd
ee
f3
ef
fa
f9
06
0a
fb
11
08
0f
0f
05
10
01
fa
fd
04
05
fe
05
12
09
09
08
0f
10
10
09
09
ff
f7
00
01
f2
01
00
14
0b
09
0b
11
08
00
04
01
fa
fb
fd
01
07
0c
0e
0e
18
1a
15
13
0c
0a
ff
02
fa
03
fb
f1
02
0b
10
09
08
12
0b
fe
04
fd
05
0a
07
01
0e
07
10
1c
24
2c
23
24
15
16
0e
0c
05
0b
00
02
09
15
fd
05
0f
0d
11
07
10
fe
03
06
03
02
05
16
15
16
1b
18
17
16
0e
18
09
05
03
0e
02
fc
0b
0e
01
0e
07
09
11
09
0e
13
02
f9
f5
fb
fa
00
06
03
05
13
0f
0f
03
01
fa
f6
ef
00
01
07
14
11
15
02
06
06
04
fe
02
04
08
07
00
ef
fb
f9
ec
ec
ea
d6
d4
e1
de
df
dc
e0
f1
f9
04
03
0b
0f
00
06
0a
03
06
08
ff
0c
fd
09
09
06
fe
04
f6
e5
dd
d3
cd
df
de
e5
ec
f9
01
00
09
0c
06
0b
0b
15
07
13
11
0d
0e
05
03
0a
0c
0e
05
09
0f
05
12
03
fe
02
0d
04
09
10
0b
12
06
05
06
0a
07
0c
0c
09
08
00
04
fc
02
f5
0f
fe
07
f7
06
fa
fb
02
fd
fe
04
f7
01
03
05
f7
fb
fd
f6
07
09
00
f0
04
09
f3
fe
09
03
fe
08
f5
ec
09
f9
09
05
ff
fe
fe
0d
f0
f3
ff
0b
02
01
fa
04
05
0a
f4
00
0b
f6
0b
0d
02
01
00
f9
fc
f6
05
f8
0b
12
ff
01
13
02
fc
08
06
13
06
00
16
0d
0d
03
01
f9
06
06
07
09
02
f7
03
03
f1
02
07
07
0d
17
22
25
2d
2d
36
31
32
20
18
1c
14
f8
12
ff
f1
f2
f5
03
fa
02
04
f3
fc
00
fe
02
fe
05
00
14
0b
12
14
1b
13
16
10
11
0a
0c
1b
13
09
03
04
f6
fc
ed
fd
fe
f4
f7
fc
04
18
0c
fd
fa
06
0b
19
21
1b
1a
1f
0f
14
04
fe
05
02
03
05
17
06
00
f7
fa
fd
00
05
04
05
10
1b
0e
0f
ff
ef
06
26
24
29
2c
25
1b
17
14
05
fc
f4
fa
06
08
f0
e7
00
04
05
08
fe
ff
fc
0f
0b
07
06
ee
dc
ea
ff
10
11
1e
16
13
19
0b
04
fe
fa
f6
0e
12
0e
ff
05
01
f8
ff
0b
02
09
fe
0a
01
ff
ec
cd
d4
dd
ec
04
01
0b
09
09
fd
04
fb
f7
f5
01
1c
0b
fb
00
0d
0c
0f
16
15
13
27
05
09
f9
e3
c9
b9
d2
d9
ea
f7
fd
f5
fb
fc
04
fc
f6
f6
08
1b
12
09
04
0a
07
10
fb
02
13
12
16
0d
04
db
b8
ae
c1
d5
e6
f9
ec
ef
ea
f0
f9
fe
fb
f7
03
20
0d
fa
f9
02
fd
01
02
0b
04
09
0b
06
f6
e0
b8
a1
a7
d5
e3
f1
f1
de
dc
e2
e3
ea
e5
f9
12
22
02
fe
02
02
0a
11
10
12
06
14
04
fe
fa
e0
b8
91
b0
d4
eb
f9
f7
d3
cf
d6
d4
e4
e3
fa
07
20
10
fe
04
f8
0a
10
0f
fd
02
12
0d
0d
04
f8
b9
81
bd
e9
f6
01
fc
d0
c4
ca
d8
e5
f3
f8
0f
0c
0c
f5
00
04
09
09
f8
0b
fa
1c
24
1f
06
ed
c2
90
d4
fe
ff
0e
f0
c7
c0
d3
d8
f3
11
16
12
19
ff
04
0b
05
0d
04
0e
0c
08
31
2a
0f
ee
dc
c6
ad
e6
06
04
06
f9
c0
b5
d1
fa
0a
2e
1a
08
f7
07
08
14
00
07
13
16
20
11
15
0e
08
de
c7
c6
be
ed
09
04
02
eb
a9
bd
e9
0a
18
0e
08
f6
f6
f3
01
02
02
fd
02
0d
14
0c
01
f1
ed
da
ce
d2
ce
fa
11
01
fe
d5
ac
bd
e7
02
fa
03
0b
06
fe
01
fe
05
04
09
00
04
15
0d
fc
f9
f8
e6
e2
e5
e7
07
07
02
f6
d0
ac
c4
ea
f1
07
11
05
13
08
05
fb
ec
05
10
ff
0e
15
12
05
fe
0b
00
fa
f3
f8
03
10
08
04
de
d0
da
ed
04
0d
12
21
1a
11
03
fc
f4
04
16
ff
09
10
06
0f
16
0a
01
04
fc
fc
fc
07
fc
f7
eb
e1
dd
f2
01
05
0e
12
10
07
06
0f
fc
fc
fe
12
17
0b
17
04
06
0e
01
fa
eb
ee
ef
f3
f9
f7
ed
f1
e3
fb
0e
10
ff
01
ff
06
01
06
fc
f5
03
0d
0b
18
0f
09
08
fe
fc
f7
fc
fd
ff
f9
ff
02
f6
f8
f4
f4
01
14
0d
08
01
05
0f
06
03
09
09
f9
13
09
f9
05
f7
fe
04
05
0d
11
0a
14
14
17
0f
08
01
f9
f8
08
04
02
f8
07
12
05
04
01
01
08
08
fe
02
f8
02
0c
13
10
1c
21
27
18
1b
16
0c
09
00
f6
ff
07
14
02
08
0a
fb
00
03
f3
f0
f9
ff
01
0e
1e
04
0a
13
09
16
11
0c
14
0c
11
07
11
0b
15
06
05
08
fc
03
f8
fe
04
05
01
08
08
fa
0b
15
15
0e
1f
1e
23
27
27
2b
28
28
2e
35
33
2e
2b
1a
fe
f5
01
ff
01
00
08
0d
13
00
02
02
05
06
09
0e
06
12
16
21
34
3e
4e
38
36
25
27
12
0d
f7
fa
fe
06
fb
02
fe
0b
04
fe
fb
02
01
f7
09
01
f7
08
04
fe
03
f9
f2
ee
f5
fc
f8
fa
f8
ed
fb
fb
ff
ff
f6
10
07
01
f6
ff
04
05
0e
ff
05
fc
09
06
f9
0d
09
fd
fe
1f
13
09
f9
08
06
04
09
f9
00
00
f6
f0
03
f6
0d
10
02
05
02
03
08
02
0e
13
10
05
01
08
0a
04
13
0e
11
0e
0e
06
0b
05
0f
0a
0e
00
0b
00
09
0c
09
0e
10
0d
05
08
18
0f
09
06
00
07
0e
0d
01
08
0d
0b
12
0f
08
06
0a
0f
08
0c
05
00
00
0a
0f
0b
07
05
0a
07
0c
12
0f
10
04
fe
09
09
f1
f9
02
f6
fd
01
05
05
0e
09
01
0d
08
06
08
06
00
fc
01
0c
0b
15
0e
13
fb
00
02
f7
fe
f2
e5
f1
ec
ee
ed
eb
fe
fd
03
03
fc
06
15
09
11
0b
01
08
0a
15
08
11
03
0e
12
0e
10
11
19
1a
12
1a
0e
0d
0e
09
0b
09
fc
00
08
00
08
0e
0c
0a
0f
04
13
16
0d
04
fd
02
05
12
0c
1f
2d
32
30
2e
31
26
19
0e
16
0a
0d
05
02
fe
00
06
02
0c
0f
0e
0d
0a
0f
fe
02
f5
fd
fc
10
16
2a
2e
2f
2e
28
28
18
12
13
0f
00
06
ff
f8
03
08
0c
0a
00
0b
05
0a
0e
00
f2
e6
e6
e4
f8
fd
11
1d
23
22
1d
1b
0a
06
0b
fc
01
fe
fb
ee
07
09
14
05
0d
00
03
ff
fd
fe
03
ee
e2
e7
e0
e6
00
0d
1b
1e
1d
0b
07
00
01
04
f3
fe
f7
f2
f5
00
09
03
0f
04
0a
fb
f5
02
f8
ec
e4
d8
d5
d8
ea
03
0f
1a
0f
04
ff
fc
fe
fa
f8
fc
fc
f4
ec
09
07
fd
0e
04
05
03
fc
fc
f3
f6
f0
df
c9
d0
ea
07
09
11
0a
04
f3
f7
fb
fd
f2
fe
ef
e7
f5
fd
0d
07
04
10
05
05
fb
fc
ff
fd
ec
ce
be
c4
e5
07
17
24
0f
fa
ef
fa
f3
fd
f5
f9
f7
ee
02
09
0b
09
0e
03
03
01
fa
fc
f3
02
ec
c9
b5
aa
d1
00
0c
14
0c
f1
e4
dc
eb
ec
e6
f8
e5
ee
ff
07
0d
00
06
ff
03
09
04
f4
f7
f6
ee
cb
ae
a7
e3
0b
11
20
14
f1
d2
d1
e4
eb
ee
f2
e8
f0
fd
0e
10
0d
0d
0f
06
06
ff
ef
f8
fc
f3
d1
ae
b3
f6
22
29
2e
1c
ec
c6
d2
d9
e5
ec
ef
e7
f8
f7
09
0c
06
03
00
0a
06
f8
fa
eb
f3
f2
d6
b6
c9
04
29
29
2b
1a
de
cb
d3
e3
ef
ef
e6
fc
02
09
07
07
02
03
fa
f9
fb
ef
f8
ea
ef
ea
cf
bd
d8
18
2e
2f
1c
0f
cf
b8
cf
e4
ee
f7
fc
09
0c
0e
08
09
02
03
10
03
01
f8
04
ec
ed
e8
cd
d5
e8
0d
2a
17
15
f1
c4
b9
d0
e4
f3
f5
fa
fe
03
10
14
06
07
00
12
03
fc
03
fd
f7
f9
f3
de
e3
f3
16
1d
1f
12
ef
cf
bc
da
e5
f7
fb
f7
ff
01
06
13
14
06
fe
0a
ff
00
f8
fb
ff
05
fc
f7
f6
f9
16
25
24
1b
03
e8
d7
e3
fe
02
fd
00
fd
0a
0c
05
0a
07
09
0b
06
f9
f9
03
06
04
fc
01
00
ff
10
26
1b
1c
05
f3
e7
e8
ff
fb
f8
03
f9
fe
fc
03
0c
0f
fe
07
08
03
f4
02
fc
01
fc
fb
f7
01
10
11
19
16
0d
fb
f5
fc
f8
fc
06
07
fe
04
05
0b
01
09
04
02
fc
f3
fd
fe
fc
02
f5
f1
fa
f9
05
08
0f
14
03
fe
fd
f8
fe
f7
03
00
0b
0e
0a
0a
14
00
0f
05
02
07
01
00
fe
f8
01
05
05
05
09
15
19
10
1b
0e
09
0c
03
f0
f9
0b
17
08
0b
07
0d
02
0b
0c
f9
03
04
05
0e
ff
04
05
13
14
1c
2d
26
22
22
16
0d
05
0c
f5
f9
01
08
02
03
08
05
10
05
11
09
fe
fd
06
0b
12
0e
18
14
1b
1e
19
20
1c
1a
08
06
0a
0e
05
fa
0b
05
05
0b
07
06
02
10
0b
11
0a
f6
fa
fe
f8
01
0d
04
0b
05
09
06
fc
fa
fd
f2
f7
fb
03
04
0c
0f
13
09
00
0e
0c
0b
06
0d
0c
04
fa
f7
f6
f3
ef
e8
df
d3
d7
d3
d3
d1
d5
d7
ed
01
0a
0a
09
0c
06
0c
07
00
09
06
03
0f
03
10
08
10
06
04
f7
ed
e3
dc
e2
e4
ec
ee
f8
ff
00
03
08
07
05
03
0d
08
06
0f
11
12
0b
0c
0b
0e
0e
0b
0a
09
0f
07
00
fe
fb
00
08
04
05
02
0e
0b
09
0a
0a
06
08
09
02
07
00
05
12
0a
0c
0a
0b
ff
07
0b
04
07
f7
04
fa
01
0d
fa
0c
05
0b
04
08
08
12
14
04
03
04
07
05
06
00
07
05
0b
0e
06
01
fb
0e
0c
0f
05
06
02
0b
f9
06
fc
0a
ff
05
fe
06
11
04
07
0f
0a
07
08
0b
11
0f
07
fa
02
fd
0f
09
1a
1d
02
0c
13
12
11
06
17
10
0f
17
09
0c
12
01
09
08
07
11
0a
18
04
13
0b
0b
fd
0b
0d
13
19
21
1f
24
33
34
32
24
36
27
1a
15
11
0d
03
ff
04
02
fd
0e
09
05
04
04
04
0e
05
fd
05
09
0b
11
0e
18
1f
16
1d
17
0f
0a
14
05
1b
19
12
07
10
01
fe
08
0b
0a
00
ff
0d
08
15
1f
06
fd
09
1c
28
3a
37
3b
2f
27
27
20
14
13
0f
04
13
1e
0a
0a
fb
05
10
04
0a
fc
f5
09
18
19
0c
00
06
1f
36
51
50
58
54
4d
36
34
1a
14
0a
03
10
18
0d
00
0f
02
17
0f
16
03
08
09
11
13
19
02
f2
0f
2a
4b
53
58
5b
57
3f
35
1b
09
06
09
0b
23
05
02
fa
06
15
03
0c
08
14
17
11
0e
13
f9
e4
ef
16
36
4b
4d
4e
3a
39
27
1e
08
00
02
16
20
19
0e
0f
0d
13
12
12
1f
11
17
13
05
13
ef
d2
da
fb
20
3e
4d
4b
3b
2e
24
10
16
07
07
05
2d
13
01
0b
0a
0f
19
0d
19
18
1c
14
13
09
ec
dc
d1
f5
1e
3c
52
42
2d
2a
24
0f
06
04
fc
0c
30
1a
ff
09
0b
0a
03
0a
0e
0e
0e
18
19
03
ec
ca
bb
e5
18
48
51
42
1e
12
17
0e
05
fd
04
22
36
07
09
ff
09
0a
10
06
0c
0a
22
14
03
f9
fb
c6
a8
de
2e
47
60
3e
0e
07
fd
ef
f6
fd
0c
13
1d
06
07
07
02
11
14
10
14
14
14
12
14
07
06
ca
99
eb
3a
51
57
39
fe
ea
f0
e6
f9
01
11
12
1e
11
13
09
15
19
03
0d
07
04
1d
21
18
00
f4
c4
ab
ff
50
60
59
36
ee
e6
eb
e8
04
19
18
14
1e
12
0c
0e
0c
07
12
0a
0f
11
2a
26
18
f3
ec
c7
bc
1c
5b
60
5e
28
d9
d8
ee
08
18
20
25
0a
03
0d
07
14
04
01
18
1b
0e
1a
20
11
06
e8
e5
d5
d9
33
58
62
51
1d
d0
cf
03
19
1d
1a
08
fe
ff
01
14
1c
0c
0e
12
0d
21
10
0a
fe
f7
e1
dc
e6
fe
37
5a
55
39
07
ca
ca
fc
13
17
04
03
0e
fd
01
08
0c
05
01
06
03
0e
15
07
fd
f5
f8
fa
0b
11
45
5a
56
35
fc
d4
dc
fe
02
0b
14
0e
0f
0a
11
08
03
0f
1b
0f
20
1a
0d
09
02
06
04
0a
20
20
46
5b
50
37
0a
ec
e1
f7
08
0b
09
1b
1a
0e
0b
06
f9
08
13
12
0d
0b
0b
0a
0b
16
0e
18
25
22
38
49
40
2e
0d
ef
f4
fb
04
0a
16
1e
1d
07
0f
1a
0b
11
11
16
16
16
17
07
0b
11
0a
12
1a
28
2d
3f
3c
20
0f
f8
fa
fb
12
11
08
16
0c
0e
17
03
07
07
0b
08
19
12
17
08
05
14
0d
1a
17
21
2c
3c
28
26
1b
08
fe
09
0b
14
07
0d
ff
12
0d
ff
00
0c
0a
0c
20
17
0a
03
0c
09
13
21
28
34
34
3d
39
2c
27
1e
0f
0b
0a
16
13
00
05
13
09
ff
14
0d
0a
13
17
0c
04
02
00
03
14
1c
28
32
41
36
33
34
24
12
0c
ff
0b
12
1e
14
17
1c
0e
ff
0a
08
fd
fe
f9
0d
13
10
04
0d
08
16
17
17
1b
18
1e
16
0e
fe
01
0b
13
1c
0b
07
06
09
05
0c
00
fe
01
04
18
11
1d
15
0c
20
11
09
0f
15
1b
0b
10
1e
20
15
24
28
1e
06
02
fb
08
fe
08
06
0e
00
0f
0a
fe
03
11
19
1f
36
26
2a
3a
39
41
51
3f
3a
3a
3e
2f
1e
09
06
10
0c
01
08
16
0b
0d
12
05
10
0e
17
0a
0c
01
01
14
05
16
0c
23
17
07
11
0d
09
02
09
07
02
08
02
08
0b
05
0e
06
03
11
05
0a
15
07
ff
16
0b
03
1a
0c
0f
0a
1c
0e
0f
04
06
0c
09
00
0a
0b
03
fe
ff
0a
08
0d
f0
f4
f7
ee
f2
f7
fa
fd
fc
fb
ed
fb
f8
ea
f2
fa
ff
f1
fc
f7
05
fb
fb
00
f9
fb
fb
f7
fc
fa
eb
f4
fc
f6
03
f5
fc
f1
fd
f2
fa
fb
fc
f6
fa
f7
f2
fd
f6
fc
fb
f0
f9
f7
f1
01
f9
ef
f5
fe
f9
f2
00
f4
f1
f3
ef
f4
fc
f3
f3
00
03
11
13
01
09
fb
01
fa
fb
02
fd
f6
fa
f7
00
f5
f5
f3
f1
ef
ee
f4
f9
f4
f8
04
05
13
14
14
10
0a
04
01
04
fe
00
fa
f8
00
03
fa
00
fe
fa
f5
f3
f8
f5
f3
f1
fa
fc
03
06
03
0a
0a
12
08
09
f9
06
02
fc
f6
fe
f6
f7
fd
f6
03
f9
f7
f7
fe
f7
02
f4
fd
f6
02
f9
fb
05
0a
04
ff
0b
0b
04
04
00
fc
02
f6
f1
f4
f1
f0
f5
fc
fe
f5
f6
fb
fd
f9
f7
f2
fc
f4
f0
00
04
0a
0a
00
09
09
0e
0d
02
07
fe
f9
fc
f9
f1
f8
ef
f4
f1
ed
eb
f2
f7
f8
f4
fd
02
fe
f9
f8
02
05
06
0a
13
08
0c
13
0f
04
fd
f5
f9
f7
ec
ee
e4
e8
ee
ec
e3
f7
f7
f7
f1
f6
02
f6
f7
02
0c
14
12
18
16
16
0c
18
12
0a
04
f8
f0
ee
e6
f1
ea
e9
e4
e7
e6
e5
f4
fc
ec
fe
f5
fc
03
08
11
1d
16
1e
11
1a
15
17
11
10
01
f4
f2
f1
e6
ef
e0
dc
ee
e5
df
ec
fa
f9
fe
f2
fb
f7
f7
05
14
19
24
1b
1c
16
0d
0e
06
10
0c
06
f9
f6
f1
ee
e1
dc
e4
f0
e3
e7
f1
ef
f9
fa
fa
f8
00
0b
1d
23
1c
13
12
07
09
fd
02
fd
ff
fe
01
ff
03
fa
f2
e8
eb
f6
e6
ec
ef
fd
00
f7
f5
f6
0d
09
1f
21
28
1a
10
09
fa
fe
f5
fa
05
00
0a
03
fc
f3
e7
f0
f3
fd
fd
09
f9
fe
f9
fd
f5
07
0c
13
1b
2c
2c
1d
1a
06
06
f8
fa
fe
02
00
07
fe
fc
fe
ec
f6
f5
07
00
fd
f8
fb
01
01
fb
0c
04
0d
15
25
1f
09
0d
01
00
ee
ed
ee
fe
f6
00
f7
03
f5
f9
00
0b
11
11
0c
fe
ee
04
f8
f5
07
07
12
14
17
02
e9
e7
dc
de
da
d8
ea
f6
ee
fe
f9
fa
08
07
0c
23
23
13
12
06
f1
f5
f7
00
01
0b
00
09
04
f0
eb
da
e7
ea
e7
e4
ec
fa
06
00
03
0a
0e
17
1e
31
33
1a
20
0e
ee
01
f2
f6
ff
06
07
0f
0f
fe
f5
f7
05
05
02
f6
ff
fc
09
09
0e
12
17
21
2e
2d
33
23
20
0a
f9
f9
ee
f3
fb
ff
0c
13
0a
0f
04
10
11
0f
00
fe
fe
f9
fb
08
0a
1c
23
2d
35
32
27
1c
27
17
01
fd
f3
ff
f9
fd
06
04
10
0a
0b
07
08
fe
fa
f4
f4
f0
f1
fe
12
1b
28
2b
35
3b
35
1f
26
15
02
ff
f4
f7
00
04
fe
0c
0c
09
03
f9
fc
fb
ef
d7
d4
e1
e1
ff
05
16
28
31
2e
33
20
19
1e
10
00
f3
01
07
00
07
fd
fd
06
07
05
fd
fd
ea
de
cb
ce
d1
dd
f0
01
14
1f
32
2e
1e
1e
20
15
02
f9
f5
f1
f7
f8
07
fc
06
02
04
02
f9
f3
e7
d7
d7
d6
d4
e7
f2
0b
14
17
24
28
1d
13
14
17
03
f5
fd
fe
01
03
fc
fb
fe
0a
00
06
fa
f1
f4
e4
d8
d8
d9
e1
f3
00
07
17
11
13
1a
12
11
12
f5
fe
fa
f9
eb
02
fb
03
fe
fe
02
f6
f2
f5
ee
e6
de
de
e1
e4
e7
fa
ff
fc
04
05
09
10
0c
0a
f7
f3
fa
ef
eb
f6
f2
ff
01
ff
f6
f6
f4
ee
e5
da
dc
e8
e5
df
ed
eb
f0
fa
f1
f8
08
fd
f5
03
fa
f2
f4
f2
f8
ef
ee
f4
ec
eb
f2
f2
e4
e0
e8
e8
d7
e1
e1
e7
e1
e5
ee
eb
e4
f2
f8
ee
f0
f5
f6
f9
f5
f1
fb
fe
f9
f6
f0
e6
dc
cd
cc
c5
c4
c0
bd
ba
be
c7
d6
d9
de
dd
ee
e5
ee
e9
ef
00
f5
f7
f6
ec
f8
fa
ff
fa
e8
e4
ec
f1
e7
e7
ed
d9
e4
e3
d5
e5
ec
f1
f6
f5
fb
f1
f4
fd
f4
fa
ee
fa
f9
f9
fd
00
00
fd
eb
f7
f0
fb
f1
f7
f7
f0
fa
f2
f2
f3
fc
01
ff
00
05
fe
fd
f7
ef
f4
fb
00
03
16
10
0e
0c
fe
02
0d
03
0d
06
04
09
0c
09
00
06
03
03
06
01
fe
0b
fe
0e
ff
fc
fb
09
02
0d
13
fc
06
f8
05
0d
06
fd
00
0d
01
0e
0b
11
fd
0f
00
f9
08
07
08
09
0b
0d
03
ff
fc
fd
07
12
0c
04
10
09
12
0d
15
0d
15
03
05
08
fc
0f
14
0f
0b
07
14
0d
fc
00
ff
0c
0a
0c
0a
16
08
02
07
15
12
fd
05
0d
0f
ff
f6
f0
ec
e1
dc
dc
d6
d7
ee
ed
ec
fd
01
02
06
08
07
08
ff
05
06
f9
0a
0b
02
f9
ff
fb
ee
e6
f0
ec
e0
e9
ed
ea
e8
e6
e3
e3
e6
ea
f8
f1
02
fe
0f
01
08
fa
01
05
09
f8
0f
04
fe
03
fe
03
07
00
00
fc
ff
fa
f4
f6
f4
ed
ef
e8
f3
ee
ef
04
0c
01
0a
0a
ff
0d
10
06
fc
12
12
0c
01
03
11
16
18
16
17
07
09
fe
fb
f8
eb
ee
ea
e9
eb
ec
04
20
03
07
06
01
fe
fa
0a
0c
10
0e
12
11
12
26
1f
24
1d
1a
16
0f
01
fd
f3
ed
e3
dc
e1
e9
fb
0d
0a
08
0e
09
02
07
06
0f
06
0b
0f
23
1c
29
2d
21
2b
20
13
06
01
fa
eb
e4
d7
d9
d2
d8
f8
15
14
17
12
09
00
02
f8
fc
03
18
22
2b
2f
36
2b
2a
26
1f
1c
11
02
f2
e6
e1
dc
d6
cb
d9
ee
13
02
04
00
0e
ff
fc
00
fd
10
26
35
3e
3a
2e
2a
2a
23
24
14
16
0b
ff
f1
ec
dc
d9
d6
db
f9
08
12
00
12
07
09
00
01
04
19
2c
3a
40
37
34
26
1d
1a
0f
10
09
06
fc
f2
ef
e2
e5
e1
e4
fc
06
0e
0a
07
05
01
04
01
04
20
30
3e
4b
3b
35
2b
24
17
13
07
05
09
03
ff
f6
e8
e6
eb
f4
09
0a
04
0c
f9
0a
03
01
fe
08
2f
4a
52
4d
3b
2c
28
25
0c
08
09
ff
fe
02
fb
01
ff
fb
00
16
1c
03
fb
08
0a
03
08
08
0c
05
14
36
39
2a
1e
10
0c
10
f8
f5
ee
f2
f0
fa
fd
fb
00
06
21
25
26
16
0d
08
08
fc
02
00
ef
00
0e
1c
19
0c
fb
f4
f0
e5
ea
e2
e5
ec
f7
fd
fd
00
0b
1f
26
30
2a
1c
05
07
11
0b
ff
03
f9
f6
04
0a
02
ff
e7
de
e0
e0
e5
e9
e7
fb
f8
0c
12
18
27
3b
41
4a
41
24
fb
f8
0a
fb
08
09
05
fc
0c
0d
13
00
f7
f1
02
04
fa
fc
fc
fc
0c
15
1b
2f
3d
45
56
5b
4c
30
f9
fc
17
ff
0f
10
0e
fc
fa
11
0a
0b
09
02
08
06
02
f5
fb
fc
01
19
26
34
45
5c
65
60
47
24
ff
0a
09
f9
04
0d
0e
fc
f7
04
00
0b
f8
f6
fb
f5
ea
e3
e3
ee
f2
15
21
3f
50
56
62
5c
4b
22
ef
02
02
0e
f6
05
05
fc
fa
00
f5
fe
f0
f2
f0
de
d5
cd
cf
da
e6
08
22
37
4b
5a
5c
4a
3c
13
fd
0c
0c
0c
0d
f8
03
fc
03
f9
fd
fc
ef
f3
e9
e1
cb
c7
d2
d4
eb
07
12
2e
3e
4d
45
31
20
0e
ff
07
0a
0a
01
f8
03
fb
f6
fb
04
fb
f2
ec
ea
e4
d7
cc
cc
d7
ea
ff
11
21
34
36
2c
25
0b
fa
0c
0c
01
11
ff
13
01
fa
f7
fe
fd
f5
fb
f3
f3
e1
d7
d9
da
dd
ef
ff
0c
0f
0d
0a
05
0d
17
0a
00
04
10
fe
01
02
15
0f
fe
fd
07
fd
f3
f2
ef
e9
dc
d0
d9
dc
e5
ec
f2
f9
02
0c
06
0d
07
ff
fc
0a
03
16
19
06
0e
09
1b
03
08
fa
ff
f3
ec
ed
ea
e9
ec
e9
f0
e7
fa
01
08
02
0d
0b
0c
03
0e
17
07
02
0a
12
fc
09
0a
1a
15
0a
29
26
16
0c
0f
06
0e
0a
0e
07
08
10
12
1b
0e
1c
19
04
07
04
f7
0e
ff
09
f8
00
fa
0a
16
16
19
13
0e
18
02
03
17
09
0c
0d
09
08
0a
0a
11
0c
11
ff
05
0f
10
16
0f
0a
fe
fb
09
03
05
fa
fc
ed
00
fd
fd
01
0c
09
03
01
ff
02
0b
f3
fe
13
13
06
0a
07
03
07
0d
0d
ff
08
14
0e
05
11
05
fc
0f
05
05
08
0f
11
03
14
0a
f6
ff
fb
11
07
07
14
02
00
fa
ec
ef
ee
f8
f4
f1
ff
03
f3
f3
f2
fb
fb
f1
f8
f1
fe
fd
fe
f4
05
f1
fc
fe
f6
f0
ff
fd
f9
ef
ef
ee
f4
ef
fa
f1
f9
ec
f3
f2
f3
fc
fb
fa
f5
fd
f7
fd
ff
02
ff
fe
fa
fd
f3
f8
f8
f6
f8
f4
f3
f2
fa
ff
f3
fa
f9
ef
f9
f4
f8
fc
06
06
0e
08
f8
01
02
f9
f6
fa
f4
f6
f8
f3
ef
f4
ee
fa
f7
f8
fc
fa
f8
f7
fc
0a
0e
14
09
13
06
13
04
0f
ff
fa
04
09
fe
00
04
f3
fb
f9
f4
fe
fe
fe
f2
ff
01
01
fc
04
fe
07
15
15
0a
11
09
07
06
06
03
02
fd
03
01
f8
04
02
f7
fe
f9
03
fd
00
fd
f9
fd
f6
f7
fc
08
0b
10
04
08
0a
11
11
08
ff
00
05
f9
f9
f5
fe
f9
f8
fd
e6
ef
fc
fd
f2
fa
f6
fb
ff
f7
f9
04
fc
0a
0a
04
0e
0f
0c
11
09
0c
02
08
f9
f9
f4
f4
f4
f1
e6
ee
f5
f4
fb
f5
f5
fc
f8
fa
f2
fb
02
06
0e
17
18
1d
1a
17
0a
12
0c
ff
fe
fa
fd
ef
ec
eb
f1
eb
ec
f4
fc
f6
f9
fa
fa
f1
07
01
09
12
13
1a
23
1d
25
1c
1f
14
0d
05
f6
ff
e8
e4
e3
e6
ed
e1
e4
f8
fd
f9
f0
ff
01
fb
fb
12
15
19
26
21
22
24
22
1e
19
17
09
fe
f6
f0
ee
ec
e7
e6
ea
db
f5
f9
f5
f1
f3
f9
05
fd
00
14
18
26
29
24
1c
1a
21
25
1b
14
0b
07
f9
f1
f5
e1
e6
e8
e5
dc
ed
f6
f4
03
f8
fc
f8
05
0d
22
20
27
1d
1a
11
0d
13
0d
17
0a
08
11
00
f6
ea
ef
e1
e0
e8
e4
ec
ec
fc
fc
fc
fa
fd
05
07
14
20
24
1c
16
0a
07
03
05
02
02
05
fd
f9
f6
f0
e4
ea
e9
fa
f1
04
f6
f6
ee
f1
f1
02
11
14
21
2a
25
1e
16
0d
13
04
fc
03
02
06
f9
01
f1
f1
f2
ee
f0
f8
0f
00
f6
fe
f8
03
fd
06
08
10
20
1a
1b
0c
0e
06
f8
f9
ee
f6
f4
f3
f9
f8
f9
f6
f2
ff
09
16
0f
0c
fb
ea
f6
00
04
05
ff
0e
13
03
fb
ef
db
df
e1
da
e2
ed
f6
ec
f6
00
01
fc
0a
14
1b
27
1f
0b
fe
f0
f4
f3
01
0a
05
06
0f
03
ec
e7
e1
e1
eb
de
ec
ef
f7
fc
0a
09
08
16
1a
23
33
37
22
16
05
f2
00
fa
f5
0a
09
07
08
01
f9
fb
f1
fa
fb
f8
f5
fe
fe
08
07
0f
1d
25
2a
3a
37
36
2a
20
0a
f4
01
f9
fb
07
ff
01
06
07
0b
f6
00
0c
01
07
f7
02
00
0c
13
1f
26
30
33
44
46
2f
24
23
1b
f9
00
f5
f9
f8
f8
f8
06
0a
07
00
fd
03
00
f0
ed
e8
fc
00
17
1e
32
3f
43
48
48
34
2f
25
12
f9
f8
01
07
fb
fa
06
ff
fa
ff
f7
fd
f8
ea
e3
d6
de
e6
fa
05
1a
2a
38
3e
3e
42
2f
21
24
16
fb
f1
04
ff
f7
05
fb
fd
08
03
f9
f7
ef
e7
d9
d1
d6
d7
eb
07
1a
29
42
47
43
2b
25
15
14
0a
f8
fd
f0
ff
02
fb
07
06
fe
fe
01
f3
eb
ea
da
d3
ce
e1
f6
0b
11
26
35
37
2c
2b
1c
18
17
00
f0
f5
fb
fb
fc
0a
02
ff
03
fd
05
f5
fd
e9
ee
d9
dc
dd
f2
01
04
10
1b
1c
1c
1b
11
1c
10
f7
f8
f3
f2
f8
f4
f8
09
04
03
03
f6
f7
f0
f4
e4
de
e1
e6
ed
f6
fe
02
0c
0d
12
0a
0b
05
fe
f6
ff
fb
fc
f9
f1
fc
fc
fa
f7
ff
fd
fd
ef
df
e4
e3
dd
e8
e4
f0
ef
ef
fb
f7
f9
05
08
ff
f8
fe
f5
00
f2
f9
fc
f3
ea
f8
f9
e7
eb
e3
e3
de
dc
d5
d9
d7
d3
e2
db
e2
ec
f0
e8
e9
f3
ef
05
04
ff
fb
f7
f1
f5
fe
f5
ea
ea
da
d7
bf
be
ca
be
bc
bb
be
cc
d2
e0
e4
e1
e1
eb
ea
f4
eb
f2
ee
f3
f8
ed
fa
f6
f9
f5
f3
f1
ed
ee
ee
ee
ed
e2
e5
d9
df
e7
e0
ee
f0
ec
fa
fc
ef
f2
f5
f3
f6
ef
ec
ee
f7
02
fa
f5
f5
f7
fa
f5
f4
ef
f2
f6
f7
f0
f2
f6
f6
01
ff
01
f8
ff
f2
f5
ed
fd
ef
f7
17
0b
11
04
01
09
fa
06
02
03
15
fa
09
01
f9
f8
06
fa
01
ef
f9
fe
f9
f5
08
00
00
05
fe
02
08
0e
11
00
0a
f8
08
fd
02
fe
0b
ff
f8
13
1a
0b
fd
00
03
f8
10
ff
01
f8
f8
06
fc
01
0b
07
ff
06
0d
0b
fe
05
0f
0c
06
0d
09
fd
03
fc
09
0f
1c
0c
08
fc
09
08
f6
03
0b
05
fa
0a
06
00
0d
03
10
14
f7
02
01
01
f3
f1
e6
e5
e1
d6
d0
cf
d5
e1
e3
f4
f0
fa
f9
08
07
fe
ff
0b
05
05
fa
f5
09
04
00
ff
f9
ee
e4
e3
dd
e3
e0
e6
e6
dc
e3
dc
de
e9
ec
f5
fb
fd
07
07
05
fd
fc
0c
05
06
0d
f7
fd
05
03
f8
ee
f1
f3
f7
f9
f1
f3
e9
e7
ea
e4
e7
e2
ea
f1
fb
fd
10
05
01
04
f8
f8
f4
02
fd
0c
08
03
08
fd
fc
05
fc
05
03
00
f7
ef
eb
ed
f5
e9
eb
ea
ec
02
07
09
08
0e
06
10
fd
ff
03
0b
0c
04
11
09
10
0e
07
0a
08
0b
00
fc
ff
f2
ed
e9
eb
ea
ea
ea
02
21
0c
0e
0d
00
fe
f2
11
12
fe
fd
09
18
11
1b
1e
18
18
17
13
09
00
f6
ee
f1
ed
dd
df
df
f4
0f
0b
14
f8
02
07
08
09
fb
06
0b
18
26
1d
21
1b
1d
15
20
11
0a
fe
01
f3
f8
e6
e9
de
e0
05
0d
03
0e
fe
fa
0c
f9
ff
06
0d
1b
24
29
2d
21
1f
18
18
15
14
0b
0a
03
f7
fc
e9
e5
de
e0
f6
09
08
f8
00
fa
05
02
fa
06
16
1b
29
2e
2a
1e
0f
09
fd
fe
06
02
04
06
08
fe
f5
e8
e5
f2
fe
0c
09
0d
06
0b
f5
07
06
04
14
21
3c
2e
26
17
13
05
02
04
05
10
0f
10
10
fd
f4
f8
f3
fa
0c
f9
00
07
00
ff
0f
0e
fd
04
1e
3a
34
2c
25
0e
06
07
05
fa
0c
10
15
0d
04
fb
fa
f8
0a
10
19
fb
f0
08
07
05
fb
09
fd
00
1a
2f
2b
16
07
fa
f3
f3
e9
ec
ec
01
fe
07
00
05
f9
07
1a
1d
22
0c
02
0b
0f
ff
12
05
00
f9
11
1c
19
fc
e9
de
d9
e0
dd
df
e2
f4
f1
00
fb
fb
0a
0e
1d
28
26
12
f4
00
13
f9
0a
0c
f2
fa
04
0f
06
f3
e2
d0
d0
dc
cf
d1
e9
ec
fa
fc
06
08
10
14
2f
28
24
12
ef
f2
0a
02
fd
08
f8
f9
01
11
07
fc
ef
e4
e3
f3
ea
eb
e6
ed
f9
01
0c
0d
1e
30
38
3d
2f
18
f4
fb
0d
ff
10
12
fe
04
fc
03
06
05
fc
01
03
03
f1
f0
ef
f1
fa
07
13
1d
2a
3a
45
4c
3a
0d
f6
fd
09
fd
12
04
0b
f7
fe
00
0d
fe
01
fc
f8
fa
e4
df
dc
e1
ee
00
0e
18
27
3b
40
4c
34
10
ed
fb
04
02
f8
fb
01
00
f6
01
f8
03
fc
fb
ee
e7
db
c7
be
c9
e3
ef
06
1a
2d
3c
38
36
2e
02
ec
07
f9
fa
fe
f5
f6
fe
f5
fd
02
fc
fa
e4
db
dc
cb
c4
c3
c2
d9
e6
01
1d
28
2c
35
2d
0b
05
ff
03
f9
ff
0d
f9
fb
fa
ff
00
f3
f7
fc
ed
e3
d6
d1
c3
bf
cd
de
e9
07
15
20
28
1b
0e
fa
e9
f8
02
ff
fb
09
04
06
fc
f4
f7
f3
f2
f7
ee
ed
e2
da
ce
cd
db
e7
f3
f7
00
10
10
00
03
f6
f2
fa
06
f4
05
12
03
fa
05
f2
f9
00
fb
ee
f3
e7
dc
d2
ce
cf
d6
e7
f5
fc
fa
fb
fc
f7
fa
05
fd
02
00
ff
05
02
02
09
0e
ff
02
00
f9
f7
ea
eb
ec
da
db
d4
e0
e0
ec
ea
ff
f1
05
f9
04
04
f8
fb
11
02
06
02
fb
f9
1a
1d
06
0e
0a
18
0a
07
fb
01
fc
fb
09
04
03
03
10
0e
0d
10
1e
1d
0f
01
00
f9
fc
05
fc
08
fc
07
0f
0b
22
37
33
2b
38
2d
38
49
2c
25
23
17
11
10
13
14
15
12
f8
05
02
09
ff
0c
fd
00
f4
ff
07
0c
01
08
0d
07
04
fd
17
0d
11
09
f9
14
0c
0c
fc
f4
10
13
07
01
08
fb
10
00
03
ff
fd
06
07
06
02
fe
ff
03
fb
fe
07
07
00
fb
09
f8
fc
05
f8
02
0b
07
09
04
fc
05
f7
02
f5
fe
fa
f5
f4
f0
eb
f4
f8
00
f8
f7
ec
00
ff
f9
f9
ef
f1
f3
ed
f4
fb
00
04
00
ee
f5
f8
f1
fa
fe
f3
02
f1
f4
f1
f8
fe
fa
f3
00
f0
fe
fb
f9
fc
fe
ef
f8
00
f5
fb
f5
ff
fc
fc
fa
f6
fa
f4
02
f8
ff
fa
fc
ef
f0
ee
df
e4
e2
da
e3
ec
ed
e3
ed
f2
f6
f8
f4
fb
f4
fb
ff
f6
ef
fa
02
f9
fe
01
f9
00
00
f1
05
01
0c
f8
fd
f1
e9
f1
f0
f4
f6
f1
f5
ee
ea
eb
ef
f6
ff
fb
f8
ff
03
f7
fc
fe
05
08
12
0a
15
10
0d
0a
f8
fe
fb
f3
f2
e7
f8
f7
f3
02
f8
e9
f8
f6
00
ef
ee
02
fa
f0
f8
03
0a
01
05
07
04
fa
08
fa
00
ed
e5
ea
e3
e9
e3
ee
fa
f2
f6
f8
f7
f2
01
fa
fc
fc
01
f3
fa
f8
00
08
09
05
0b
0b
0b
03
05
01
fa
ed
eb
dc
e6
e1
f0
ed
f3
f5
e7
f0
f9
f0
ee
01
f7
f0
f9
01
05
02
ff
07
0f
0c
0c
0b
05
02
ff
f0
f1
ed
df
e6
e0
eb
f4
f0
df
de
e6
f7
04
fe
f8
ef
f1
09
04
0d
10
17
16
16
1a
15
14
09
01
f0
f1
e7
ec
e5
dc
e2
e6
e8
e4
d8
ea
f6
f6
fa
ef
ec
fb
06
02
13
16
1d
1b
16
0f
0b
ff
04
fc
f7
e4
e9
e4
e9
ea
e4
e7
ea
e6
d3
e3
f5
fd
f6
f3
f5
fd
09
08
0f
20
1c
25
13
12
08
fe
f5
f6
f4
ef
e5
e0
e8
e7
ee
f0
e9
e3
d5
e1
fc
f1
ff
fd
f7
fc
06
11
1a
20
28
28
14
15
0a
fa
f7
f4
ec
ec
e3
d7
d5
da
ee
ee
f2
ed
e4
e8
fe
fa
f4
f7
ff
09
18
0d
1b
14
1f
17
13
04
04
fc
f5
fb
f0
e5
df
dd
d4
e1
e9
f0
f3
f4
ef
db
ef
fe
fe
02
06
05
0f
09
16
19
10
10
0e
fd
ec
e9
e9
fb
fb
f2
e6
e1
db
ef
ed
f2
f5
e8
e1
e8
f8
fc
fb
f6
fe
19
19
15
0c
13
1a
18
05
fe
e8
e4
e9
ec
fc
f5
ee
e8
ee
f1
f1
f7
ef
f0
d7
d9
ec
fa
ff
f5
ff
1d
1b
0e
0e
20
12
14
10
03
ef
e5
e0
f3
ed
ef
ea
e8
f5
f2
fc
f3
f2
f0
e4
d2
ed
01
02
fe
01
0e
0d
14
1b
15
16
1f
20
1b
fa
e6
de
f1
f4
f4
fb
f5
f6
03
fa
fb
f9
fa
e2
df
ed
04
f8
f5
05
14
0f
20
21
18
0f
1b
1f
18
09
e9
e7
ef
fa
03
0a
09
0f
09
0c
fa
f5
f7
e6
e7
fa
f3
f9
f5
04
09
10
19
17
28
19
15
17
13
01
fd
f2
f9
06
0d
1f
1e
21
0f
03
fc
ec
eb
e2
d9
f0
f4
fd
01
05
19
18
13
24
27
1c
1a
1b
14
0d
0a
04
0e
15
1f
1e
18
22
11
07
f3
ef
ec
de
d8
f8
03
ff
fe
02
14
0d
1d
26
1d
2c
21
15
12
1c
0c
11
0b
0b
18
1c
1e
09
09
00
f4
f5
f0
dc
e4
f9
fc
05
fb
fe
16
14
1a
1c
1a
20
22
1f
18
1f
16
0e
0d
09
15
0f
09
ff
01
ef
e9
ee
f2
d8
de
fb
f5
02
02
05
16
14
10
1d
21
21
1d
1a
16
1a
16
16
1a
0a
10
0e
07
07
02
f0
f3
ec
eb
dd
eb
f2
ee
fa
fa
07
14
06
0e
19
1a
18
13
17
13
0e
13
0b
0a
11
0c
00
04
07
03
01
f1
ee
ef
ec
f3
f3
f8
f2
00
02
07
0b
ff
08
07
0e
00
02
fe
06
03
04
04
01
01
04
01
ff
f8
03
f3
fa
ef
ef
f5
f8
f7
f4
fa
fc
09
08
03
03
0d
04
fb
f6
ff
eb
f3
f5
f4
f3
f4
fa
f3
fd
fd
02
f8
ea
ec
f7
f9
f4
f1
f5
f9
f9
ff
04
03
03
06
fa
f3
ed
f3
f0
e6
f4
f1
e7
f6
f3
f8
02
01
fc
ee
f1
f5
f5
f1
02
f0
f2
f2
02
fc
fb
fb
05
02
07
fe
04
f8
f4
fb
f6
fa
f7
f0
f0
ef
ee
ea
f5
ea
f3
ff
f4
f9
f8
f4
f4
ff
f4
ed
f3
00
f6
03
fe
f3
e8
e6
e5
ed
e0
e3
e8
ea
ed
e5
f2
ea
f1
ec
fe
f4
ef
fa
fa
fa
ff
f7
ed
ea
f9
f5
03
f4
fd
f8
fd
fe
f7
f0
f6
fe
ee
f1
02
f8
f3
f5
f4
f3
00
fb
f9
f9
fb
f4
00
ff
07
10
0d
fe
09
08
0a
03
fa
03
00
09
04
fb
0d
fa
ff
ff
fa
02
07
0e
09
08
07
0a
ff
0e
10
09
03
04
03
fc
07
03
11
02
fe
11
fd
fe
fe
fc
f8
02
fc
03
03
01
0b
fd
fe
02
fd
08
0b
0e
09
fa
f9
f3
fe
02
f7
fa
fd
03
15
1c
0a
0b
20
0d
09
06
0c
11
11
0b
09
00
0a
fb
01
03
0a
fd
ff
01
01
09
02
02
01
09
15
15
10
04
16
0f
21
16
12
17
06
10
07
0b
08
12
01
0d
fb
06
11
10
fc
ff
f7
ff
fa
ff
f5
f2
f2
ed
e1
d8
d6
e0
d9
d8
dc
e7
e7
e5
ec
fe
0b
14
17
07
01
05
fd
00
f9
00
fa
00
0a
f7
eb
e5
ed
f7
ee
ee
f1
e9
e5
da
d9
d0
d8
de
dd
e3
f2
f8
0a
16
0c
fb
f9
0e
f9
05
0b
15
ff
0a
0f
0f
0c
09
12
14
0f
00
fe
ec
e4
df
da
dc
e1
e1
e5
f0
fc
19
0f
06
03
0b
fe
ff
fc
10
0c
ff
05
07
1a
18
23
21
1e
14
0b
06
f7
ed
ec
e2
db
df
d7
e6
f1
18
21
0a
fa
f2
f7
05
09
0f
f9
fd
09
1d
29
2a
34
2f
23
18
1f
07
04
f7
e8
dd
de
d1
d4
db
eb
0b
26
12
09
fb
02
06
0c
0c
04
09
0f
1e
2f
32
2d
2e
20
1d
0e
0c
fa
ee
f2
df
e1
d6
d7
d0
eb
0c
22
17
0b
01
11
02
0d
0f
00
ff
15
33
3c
3c
3a
29
1f
13
10
0a
ff
eb
e3
d5
dc
e1
db
e5
e1
ff
1a
09
fc
07
03
fb
fb
02
01
07
22
35
39
42
2e
26
21
10
05
10
fb
f0
e9
d5
dd
e6
e9
e0
f4
ff
13
0a
f1
01
0e
04
07
02
fb
12
22
36
37
2c
26
19
0b
06
00
0b
f9
f4
e5
e0
e0
eb
f4
f3
f6
05
11
0a
08
06
05
fa
fb
00
f6
10
28
21
27
27
22
14
04
f8
ff
06
06
03
f4
ed
f6
f9
ff
03
f9
08
14
0e
07
fa
02
fd
04
f7
fb
2b
4b
4a
49
3d
2d
21
0f
02
04
0e
06
03
fc
03
00
ff
0d
fe
fb
02
25
16
fd
09
0a
16
01
f3
03
28
4d
4a
57
50
41
37
1d
09
fa
00
11
09
0a
00
00
03
04
fb
e4
e9
19
19
f7
f1
fb
fa
03
fa
01
1e
2b
29
3b
43
47
37
2b
10
0b
0f
0f
10
13
0c
06
0b
06
f0
e7
f2
0e
12
f4
f4
08
06
fa
f7
04
1a
27
2d
32
35
3c
31
20
0f
0b
12
13
1f
1f
17
19
09
fb
f7
e7
f0
07
09
fc
02
0d
06
f5
f8
15
1f
30
40
33
40
37
3e
37
24
18
1e
27
28
2b
25
1f
0f
f7
ee
e1
f8
06
ff
ff
0e
06
f8
fb
f1
00
1e
38
44
38
3b
41
3e
37
39
28
2c
2c
2c
2d
26
14
fc
ed
e7
e4
eb
17
12
07
ff
05
02
f9
fa
0c
27
35
35
45
39
33
3f
39
34
25
27
1f
20
15
10
fe
fa
ef
e1
da
f0
1e
0b
fa
fe
00
0b
06
fd
0c
1a
28
34
30
3c
34
34
31
2a
25
23
20
14
0c
0d
f5
f3
ed
e8
dc
f6
0d
09
fe
f9
00
ff
08
ff
05
15
22
2b
2a
28
2c
29
26
28
1f
1d
16
13
05
fd
00
ee
f3
e4
e8
00
18
00
05
16
05
f7
0d
fb
03
12
13
1c
1c
18
1e
10
16
10
17
13
11
07
05
01
ff
f6
fe
ee
04
13
0d
fc
08
09
ff
06
00
fb
fa
fd
0c
0a
0d
04
00
03
fa
f9
f4
f8
f8
f1
f8
f8
f1
f8
f6
fd
08
0a
06
0b
05
06
07
fd
f9
04
f6
ec
01
f9
04
f1
f1
f5
e9
e2
e8
dd
df
dc
e4
e0
f2
f2
00
0c
19
11
03
0d
f3
fd
0e
03
01
0e
03
f0
f5
f8
f1
ea
e5
db
de
d5
dd
dc
e1
e8
e2
ef
fb
0e
11
0d
09
0d
04
03
fe
00
03
ff
04
03
0b
06
06
08
01
fd
03
f6
ef
e6
eb
f5
f7
eb
03
07
0e
0e
04
07
0e
08
04
fd
04
ff
fd
fd
ef
07
01
fe
fe
f5
ff
08
fb
fe
fd
0e
f2
f2
f8
f5
f8
0b
ff
09
0e
0a
ff
02
17
02
02
10
01
00
08
0c
0c
fd
fc
fa
07
01
05
01
fb
f8
fc
f9
fe
fa
ea
fb
12
13
15
07
fe
07
08
05
07
10
ff
fb
f0
fa
f5
f2
fb
f4
ee
ef
fe
f6
fc
f5
f0
f2
f7
03
f3
ed
f7
f7
ed
ee
00
fb
02
f6
ef
f0
fa
01
fc
fc
f8
00
fc
ff
fd
fb
fc
ee
f9
fb
f8
f4
01
fc
f4
fb
f2
f4
fd
fd
fc
fb
fc
f0
f2
fd
f7
fc
f9
f8
fd
02
f5
ee
f5
f7
e2
ea
ed
e2
de
de
ed
ea
ee
e9
ef
eb
f9
fa
f9
f9
f4
fc
fd
fb
02
02
01
ff
00
f9
00
f8
fa
03
fe
fe
f5
f2
f5
f1
f4
ea
f3
f8
ea
ec
f6
ee
f3
ef
fd
f6
01
f2
f8
f6
fd
01
ff
04
06
15
0e
0e
0e
10
0d
fc
f9
fa
eb
f1
f9
fb
f3
f9
fb
f3
e9
e8
f8
ff
f5
f0
00
03
f2
ff
00
04
04
07
03
04
fd
05
00
f8
fe
f4
f2
f0
eb
ea
ef
f3
f5
f4
ed
f5
e9
f5
ee
ee
03
f3
ee
f5
ff
fe
fd
0b
09
04
08
12
0f
01
fd
f7
f6
e7
f3
eb
f1
f0
f7
f3
ee
e4
f1
f3
f4
fd
fd
fb
ef
fb
01
03
0a
0c
0d
17
13
18
1b
1c
0e
0d
f7
fb
e9
ea
f1
e4
e3
f2
e6
e2
db
f1
f3
f5
f9
fa
fd
ff
00
0c
11
16
16
1e
25
2a
23
1a
1a
06
05
fe
f4
e7
ef
e9
e5
ea
ed
e6
d5
de
00
f9
ee
ff
ea
f6
02
10
10
13
24
29
23
20
0f
0b
0f
00
fc
fa
ef
e8
f3
e4
de
ed
e8
de
da
de
f2
f0
f2
f9
f8
fb
0f
11
1a
22
20
1d
1a
0e
0e
0f
0c
04
f6
f4
e8
e5
dc
ec
e6
e5
e7
e6
d1
e2
ee
f1
fe
f3
f9
fe
13
12
18
20
23
27
1c
0f
09
ff
06
01
fb
eb
e4
d8
d7
e1
e8
e4
f4
e9
db
ec
f8
fb
f9
02
02
01
0a
18
19
1a
1c
19
0e
09
f7
f8
05
06
02
f4
e4
e5
e5
e7
ef
e8
ea
ed
e8
e8
f3
f6
fd
f8
00
07
0e
15
1c
16
1b
13
01
fa
ef
eb
f1
04
f9
f2
eb
ef
e7
f0
f3
f9
f1
ef
db
e3
e9
f2
fa
ee
06
20
1b
17
0d
14
14
11
13
02
fa
e8
ea
f5
01
f7
f5
f6
fb
f7
f4
f0
f8
ed
da
d4
f8
01
f7
f2
fa
15
17
18
18
27
29
2a
1e
11
04
ec
f5
ff
02
07
fe
01
fd
08
09
f7
f7
f0
e0
da
f3
02
f3
f6
07
05
1b
1a
27
22
25
2a
2d
23
16
03
fb
05
0e
0e
04
06
00
08
fe
f8
f0
ed
db
e0
f1
f6
fb
f9
0b
15
11
1a
21
26
21
2f
2a
2d
1a
05
04
0e
13
18
0b
10
11
15
09
fd
f5
eb
e9
e6
f8
fc
fd
f6
01
0b
1d
20
2d
26
24
2c
2e
2a
27
0c
11
09
1b
1a
22
28
1c
19
05
f3
e7
ee
e6
e2
ee
f2
ee
f6
fd
10
19
1b
31
2b
29
35
2a
2e
2a
20
17
0c
20
1a
25
1a
16
0f
ff
f3
e6
e0
e2
da
f5
fe
f7
f3
01
13
13
21
28
35
2d
2c
2d
2a
2f
20
16
14
15
0b
10
09
0b
ff
ed
eb
ec
e3
d9
da
ee
fb
fc
fb
02
0f
17
16
25
2c
2a
2a
28
2d
2a
29
1b
1c
18
09
04
02
f6
f9
ee
ef
f0
e6
e0
e9
ee
05
02
fa
fd
12
12
13
20
23
2c
2d
2a
1d
27
25
18
12
0c
06
06
fe
f2
f7
ea
ef
f0
e8
e9
e8
ed
fa
03
01
fd
07
04
12
18
14
1d
1c
1a
1b
10
10
14
0d
02
06
ff
f8
f2
f8
ef
ec
f3
ea
e2
ec
f4
ee
f1
00
05
09
10
04
0a
09
0e
13
05
05
fe
07
ff
04
f7
fa
02
f4
f1
f5
fa
ee
f4
f3
e8
f2
f1
f6
f9
ff
fc
fb
02
0b
fd
06
04
fe
fd
02
fc
f0
ed
ea
ed
f0
f8
f5
f0
fb
f5
ff
f1
ed
f6
ed
f6
fa
ff
01
fa
f2
03
03
0b
01
ff
fc
fe
f7
ea
ef
ef
e8
ef
e9
ed
f9
00
fd
f3
f3
e5
eb
f2
f6
fe
f8
01
f9
04
f2
f6
00
03
00
07
f9
02
fc
fa
f7
f0
f6
f5
f8
f8
e6
f4
ea
e7
f8
f1
f5
f5
f5
fb
f8
06
f8
f5
f9
fa
fc
f6
04
f2
f2
f1
ea
ee
df
e2
db
e8
e6
f1
de
e2
f0
eb
f9
01
f3
f9
f0
f7
ed
f6
f7
f5
f5
ef
fb
02
04
fc
f7
fe
ff
f2
f9
f1
f8
f8
f4
ff
fd
ee
e8
ee
f4
f1
f9
04
f2
f8
f2
04
fb
ff
01
05
f5
0d
02
03
04
f5
00
13
ff
0f
fe
fe
fe
01
03
fb
fb
02
fc
fe
f8
f4
02
08
fa
f8
f3
f6
07
0b
fe
00
01
fb
06
f8
03
0a
fe
02
02
03
fd
f8
01
fe
fa
fc
0a
f5
06
f8
ff
fa
11
fc
fb
06
fe
ee
f6
fc
ff
02
f6
13
14
04
18
19
08
08
11
07
12
0d
f9
f6
00
f5
0a
ff
fe
08
03
03
00
f3
fd
fa
f8
fb
0a
0a
06
0a
03
fe
0a
07
03
00
0d
05
f8
00
0b
0d
0c
07
08
f4
f3
00
fa
f1
fb
00
03
06
05
f5
e5
ee
e5
e1
e1
d8
df
d9
de
d1
e1
e0
ec
ed
f1
f3
0c
16
0e
00
fb
04
01
f7
06
09
f6
f7
ef
e9
f0
ef
ec
e8
ea
e9
e2
cf
cb
cb
c2
d4
dd
e6
e3
f5
03
08
0b
09
03
fe
06
fb
f4
fa
fe
fd
00
fa
fc
f9
fb
08
fa
fc
eb
ec
de
d8
d5
d7
d3
d7
dd
e1
f6
fe
0f
0d
00
08
00
fb
00
02
0e
03
04
08
08
0a
05
08
0e
00
01
fc
ef
e4
df
d7
d8
e2
db
ec
ec
06
16
12
f0
f4
04
00
03
08
fd
f6
fd
03
0d
13
17
16
0b
12
04
fe
ee
e8
e5
d7
da
d6
d9
d9
dd
fb
15
1b
05
f8
f3
fa
04
0c
03
f9
06
09
1f
21
1f
23
14
06
f8
f2
ec
da
e1
cf
d7
d1
d9
e2
ea
f2
1a
1f
03
14
0a
06
00
09
02
fb
fb
16
24
24
2b
14
11
f7
f1
e6
e0
e1
d8
d5
ce
cf
da
dd
e6
f9
0d
24
0b
0b
01
fd
0d
00
01
f5
00
1a
23
28
27
16
08
f7
e9
e8
dd
d6
cc
c6
cb
cc
e1
eb
e4
f8
fe
14
08
f3
fa
fe
09
f8
f9
f6
0e
1f
31
2e
1a
11
ff
e5
dc
e5
e8
e9
d4
c3
cb
d1
db
ef
f4
fd
08
1a
0d
02
f8
08
f8
fc
fa
fe
06
22
1a
1c
18
03
f3
ec
d6
df
ea
ea
e0
dd
d0
dc
e0
f5
fa
07
0f
1a
0c
04
00
fe
fa
fb
ef
f5
18
31
34
33
22
0f
05
ec
d3
d2
e1
ef
e3
e5
dd
e8
ef
fe
07
05
01
27
0e
08
07
fd
10
ff
e2
00
2d
40
52
41
3b
25
0f
f6
e4
d5
de
ec
ea
f1
e8
ea
fb
fb
07
f4
fb
32
16
f7
f7
ff
0a
07
f3
00
26
31
34
36
3c
38
2a
0c
f5
e8
e3
f8
f0
fc
f7
02
00
fd
f4
e6
ed
12
1c
f6
f6
00
f9
f2
fb
07
11
2a
23
27
2f
2a
26
14
fd
ec
e5
f5
ff
0d
13
04
0a
06
00
f3
f5
17
0b
09
fe
f9
05
04
f7
04
1d
2d
2b
2e
30
29
24
16
02
f4
ff
05
17
14
1e
0f
10
02
f6
ee
f3
19
fb
fb
05
01
f1
fb
f3
02
1b
2e
34
34
36
2e
22
1a
13
0e
00
0c
18
21
1d
0c
09
fb
ed
e8
f6
20
15
05
f9
ff
04
04
ea
07
19
32
2e
34
29
29
28
1e
18
14
0c
09
0e
0e
0b
03
fd
ec
e5
eb
f9
21
12
00
05
f9
07
f6
f4
09
1a
25
2b
30
2d
2a
1f
1b
20
1a
06
08
0b
03
fb
fb
ef
f0
e8
ee
00
23
09
fb
00
00
00
00
f4
fd
10
1d
27
2e
26
20
1d
15
13
0b
11
07
0f
01
05
fd
f8
e9
f1
fe
07
1b
f9
fb
12
04
ff
f3
e9
01
0a
10
14
20
1b
0f
0b
04
05
fd
f9
f7
00
ff
f9
f7
ff
f4
fa
02
15
06
09
11
06
fe
f7
ff
fa
f8
04
0a
06
0c
fd
f3
f1
ed
f0
e2
e6
e2
ec
e9
eb
ef
f5
fc
f9
05
23
0d
fd
00
f5
f7
f2
f9
01
f1
f4
ff
01
ef
ee
e2
e6
d2
d3
d0
d1
d2
df
d9
e6
e0
ec
f0
0e
1e
0e
fe
01
fd
01
07
f8
0b
02
01
fc
fa
f1
f4
e4
e0
de
dc
d5
cd
cf
da
d4
e4
e4
f2
f9
07
14
0f
00
f3
00
fa
f6
f9
f5
01
ff
04
f1
fa
04
f5
f9
eb
ea
d6
db
d8
ef
f1
ec
f7
06
0a
0d
15
0d
08
06
04
04
10
10
ff
f5
fe
fc
f2
f6
06
01
12
04
0f
0a
08
16
11
11
09
f5
14
06
07
07
05
0d
09
f8
06
00
09
ff
01
fc
f2
02
fc
f8
ee
ed
fd
00
f7
05
05
05
f8
05
0d
01
f6
08
fd
0f
07
11
fb
fc
f7
02
f3
0e
10
0f
02
03
03
fd
04
07
10
05
09
fd
ff
0e
ff
07
09
05
07
06
01
00
fe
02
0b
00
f9
ff
fb
0b
0e
fe
0b
01
09
04
06
0a
02
02
06
08
01
0a
fd
fb
ff
f6
04
fe
fd
08
02
0d
09
f9
07
03
06
fe
0b
05
00
0a
ff
05
fd
01
f2
f8
f8
f0
eb
eb
f8
f2
e9
f1
f8
f3
f2
00
03
02
f6
01
00
0a
fb
04
07
09
00
fb
f8
03
f2
f9
ee
e6
de
d6
de
db
e0
e4
e6
f6
f9
f5
f4
ef
f8
f0
fe
fb
02
fb
0c
01
00
08
02
06
fa
fc
ed
e0
d8
c8
d2
ce
d1
db
e8
e3
e8
f1
f5
04
fa
00
fc
01
fe
f6
fb
01
fc
10
fb
0b
fa
fb
06
ff
f5
e4
e8
e2
ec
eb
f4
ee
03
f8
00
0f
09
10
15
12
09
00
09
fb
0a
fd
fb
0a
02
fe
09
fd
00
fc
02
f9
09
01
0d
05
06
04
16
12
12
22
26
22
1f
1c
1a
11
03
04
0c
fa
00
ff
0b
0d
00
0c
04
06
08
01
08
0c
16
16
16
1d
13
1b
1c
23
2b
2e
2c
2f
26
1c
0f
0b
03
f9
04
03
fd
05
fe
f9
00
ff
00
04
ff
05
0c
17
19
1a
0e
1a
14
14
1f
29
2b
2f
20
19
12
07
05
03
fa
f9
02
07
fe
f7
00
fc
f6
ff
f9
04
0f
12
19
0f
18
0d
0d
1f
26
2d
29
25
23
1d
12
fd
01
05
05
fd
07
05
05
fc
00
f3
ed
f4
f8
fd
12
10
10
0a
0d
13
12
1a
1f
35
30
2d
1c
16
0a
fd
07
f9
04
09
ff
07
ff
f8
ff
e9
f2
ee
fd
00
09
08
0e
00
fa
05
07
11
1e
31
29
19
20
15
16
09
03
f6
01
fa
fb
f9
f8
ee
ee
e6
ea
ed
ec
f9
03
05
11
01
f7
f4
f3
07
14
16
21
10
14
0d
05
09
fc
05
05
0a
01
01
09
ee
ee
f9
f0
f1
fa
00
05
13
1e
05
fe
f7
fb
fe
11
10
12
13
15
08
0b
02
04
fd
00
05
04
0a
f2
f1
fa
f6
f2
fe
00
05
11
1d
2a
18
0f
10
09
0a
14
11
18
0e
0d
07
02
00
05
f6
ff
0d
08
0c
fd
e9
fc
ef
02
03
fc
07
1f
26
25
22
1a
1e
13
0f
0c
13
0f
ff
fb
06
08
0a
01
ef
ff
0b
0b
fc
f6
f3
fd
01
fd
04
05
0b
0f
19
12
0b
11
16
16
10
07
08
fb
f4
eb
f9
ff
0e
0a
f7
03
00
fe
fc
f9
f5
fa
03
06
03
fc
f9
fd
07
05
00
01
04
f9
ff
fd
fc
ec
eb
ea
ff
fb
05
0a
fc
fe
09
f9
02
f9
fa
f9
04
fb
f9
f0
f9
f3
ec
ee
f6
ed
f5
f1
f5
f8
ea
e8
df
f4
f2
f6
f4
f3
fc
f9
05
fe
ff
fa
fc
f6
f7
02
fd
f5
ee
ea
ea
ea
e7
ec
e2
f6
ed
f4
e5
e4
ed
fd
fa
fc
ff
f9
f7
ff
0a
02
fd
f8
fe
f2
f7
01
fb
01
ed
f4
ef
ec
e9
e7
ef
eb
fa
f2
ef
ec
f9
f4
fb
fc
f3
fd
fa
ff
f8
06
f7
fd
f9
ed
04
f8
fe
fd
f2
f4
ef
ed
f6
ef
f2
f3
00
f3
fb
ee
f9
f6
fe
f7
f5
f3
fa
0d
07
f9
ff
fc
01
ea
f3
fe
fa
fd
f8
fe
05
00
07
08
00
0f
05
07
fb
03
04
f7
fa
f6
fd
f7
01
06
07
0d
0c
05
f3
f0
f2
fb
ef
03
ff
07
07
13
0f
15
0c
14
04
0e
0d
fd
ff
05
06
0b
05
fe
04
fb
fe
03
02
00
00
f1
e9
f3
fa
ff
06
fd
05
0a
06
16
17
08
07
08
06
07
ff
03
fd
0d
fd
09
0b
00
02
0a
05
02
04
f8
f5
ef
fb
01
fd
07
fd
08
fe
0b
fd
0c
05
00
0c
02
fa
01
f6
f8
fe
06
fc
08
07
07
0c
0c
0b
ff
f8
f2
ef
f8
f5
fe
02
ff
01
f5
fb
f6
fb
f9
00
f5
00
fb
ee
fc
03
02
fc
05
04
08
10
ff
fe
fb
05
f8
f4
e7
f5
ec
e9
e9
f2
ea
ef
f0
f9
f3
f0
e8
f7
f8
ed
f5
ff
03
fa
0d
0b
07
04
08
01
05
0b
06
ff
f7
ee
ed
f0
de
de
ea
ec
e7
e5
d6
e4
e2
ee
ef
f4
03
05
f7
fc
05
0f
fe
0b
07
fb
05
0a
fa
01
08
02
f7
fe
fb
fe
f6
f0
fb
ea
f7
00
06
fe
06
02
07
09
f7
fa
01
02
fc
ed
f5
fd
07
03
ff
f9
ed
f9
06
01
ed
ef
f8
03
00
f4
03
fe
ff
11
04
f3
fe
08
09
f2
fe
f9
f1
01
f7
f9
08
f9
f2
f1
fb
f6
02
01
04
fe
fe
06
00
01
0d
ff
f2
fa
fa
ef
f2
f9
f7
08
06
02
f9
f5
00
0c
04
fb
fc
fa
f4
0b
00
00
00
0f
07
17
0a
0a
0b
07
02
f9
fa
fd
fc
02
fb
fe
06
04
f9
f1
f4
01
05
01
fa
09
08
1d
21
26
1d
13
1e
1e
13
0b
0c
0e
10
10
12
15
fa
05
07
04
03
f5
f6
f4
f5
00
04
0a
0a
22
30
3a
3b
31
2a
28
1b
25
16
08
0a
12
19
15
0e
11
02
11
14
fe
f4
f0
0a
f9
f6
fd
fa
0d
0e
27
2d
30
26
21
25
22
1c
13
23
19
1e
1f
24
13
11
11
03
11
13
ff
03
f5
fb
f6
f9
00
fe
05
ff
12
09
0f
15
1d
1f
22
16
16
1d
24
2b
2e
21
1e
18
15
0f
f5
f8
07
08
f3
f9
ee
fb
01
04
fc
f8
01
02
07
17
1d
29
17
13
0f
13
21
2e
2a
29
24
25
1d
05
00
07
10
02
e7
fe
01
04
04
fb
f3
f4
ff
ff
0b
19
17
21
0c
09
01
ff
0a
19
21
27
22
23
1f
0c
05
f6
f5
04
fd
fe
00
00
f5
f6
f0
f7
eb
f5
fe
09
09
08
05
fa
f8
f2
03
10
14
14
20
1d
19
08
08
f7
fe
07
ef
fe
f2
f3
fd
01
f1
f6
eb
e8
fc
f9
05
f8
fe
f1
e6
ef
f9
0c
1b
0d
16
1a
0b
09
05
f7
fb
f2
fb
ff
02
0a
0f
f4
e7
ec
e5
e8
e4
f2
f5
fc
f0
ed
e2
eb
ed
fd
09
06
0b
11
0e
04
01
f3
fd
08
05
f8
f3
ff
0d
03
f2
e0
e7
e2
de
ec
ea
f6
e3
d4
d6
df
e9
ec
fc
ff
01
0a
0a
04
f9
f7
06
fd
fd
f9
fc
04
00
00
ec
e7
e1
e6
e6
f6
fe
03
f1
e4
d3
d8
df
ef
ec
fd
09
03
0c
08
fa
03
04
00
f5
f4
ed
f1
07
05
f4
ea
f2
fa
f8
03
11
1f
0a
fd
f3
f6
ed
ff
f5
02
ff
09
0b
09
0b
0f
02
f7
00
f9
fe
ff
09
01
f8
fc
fa
fc
ff
0b
19
1b
09
02
05
00
06
03
fd
f8
f7
01
18
12
17
16
19
01
01
fb
09
f8
10
0a
fd
06
fd
f9
f6
f9
08
09
04
f8
fc
fb
fb
01
f7
ee
e9
fa
0e
0e
16
0a
16
02
f9
ff
02
05
06
12
03
f6
f7
e9
ec
ec
f1
f9
ed
ef
f3
eb
ea
f4
e5
e0
e4
f6
0b
0a
0b
07
0a
f4
f2
ff
fe
06
14
16
03
fa
fa
e5
df
e4
ea
e3
e1
e2
df
e8
e2
e5
e0
d1
e0
f5
01
fe
10
0c
05
f8
f7
05
fb
03
08
02
0d
fc
f4
e6
e9
e1
e0
df
d0
d2
d6
db
dd
e8
d5
e5
ea
ed
f5
03
01
0b
0e
fd
0f
f3
fe
fe
05
0d
08
f4
fb
fa
fd
eb
e6
ea
e9
eb
e5
ed
f4
ef
ef
e9
fa
fc
fe
0c
05
13
fb
00
fc
00
0e
0b
0f
17
08
01
0a
10
05
01
ff
f7
f4
fc
fd
f6
02
fd
f5
06
07
06
09
03
08
13
ef
fb
f5
00
f8
0a
10
0b
1c
14
18
0c
0e
03
08
0e
04
12
0c
08
0e
08
03
00
0c
02
05
06
02
0e
f8
fc
01
f7
08
f3
fc
11
1a
1a
04
03
11
11
0b
1b
1e
19
1c
15
1e
15
1b
16
13
0e
00
f7
ff
ff
fe
05
f8
fe
fe
01
f9
fc
07
0f
00
00
0c
12
14
19
0c
16
13
19
1a
19
10
12
0a
07
fb
04
fd
00
0c
f6
01
fe
f6
ec
f7
f5
fa
1d
0f
12
15
10
0e
0a
05
10
0e
13
0c
09
17
09
14
1a
18
09
03
f8
f8
f9
02
f7
f5
00
0f
fd
00
11
0d
08
21
15
0b
10
0a
0b
11
0a
0b
0a
10
17
04
13
17
10
07
f1
01
fa
04
f7
02
fc
07
04
ff
0a
fd
04
19
0c
0a
1a
12
07
14
0f
24
16
20
17
0e
14
00
0a
f8
0a
00
06
f6
fc
0c
ff
09
fe
00
02
fe
02
fd
02
f9
f4
ff
fc
f5
fe
fa
fe
00
f6
fe
0e
f8
00
09
0d
fc
fc
f2
0d
05
09
fb
fa
f9
f6
fa
01
fd
fb
fa
00
fc
04
fa
f8
0b
02
f5
f4
02
f1
f7
01
fa
fb
f6
13
05
0d
0c
0d
01
04
ff
03
09
08
0c
0c
0c
0b
04
09
fa
08
fd
fc
01
f8
fd
07
01
05
03
04
fe
06
02
0a
fe
02
08
03
08
0d
00
0c
01
00
fb
00
fc
06
0b
f8
05
fa
04
04
00
0e
09
03
02
04
0c
00
07
0b
0a
01
fc
01
ff
07
0c
f7
f3
ef
f2
f5
f1
f9
f4
f7
f4
ee
f9
f7
fd
f7
03
fc
0b
09
02
02
07
04
04
05
01
fd
fc
fd
f4
e4
dd
d8
d2
e5
df
ec
ea
ed
ef
fa
f2
f1
f9
eb
fa
f8
f4
01
02
fe
0e
0b
0f
00
fc
02
00
e7
e5
d0
c7
c8
cc
db
d9
eb
f0
f6
f6
f7
f7
02
fc
02
07
f5
f7
f0
fa
06
09
07
06
ff
0a
fd
fe
f4
e5
e9
df
e2
f2
f4
ef
f6
07
06
01
07
0b
07
08
07
fa
05
03
f7
04
fc
0e
0c
09
05
00
02
fa
fe
09
fd
0a
03
0f
10
09
10
0d
1e
16
23
26
15
0f
09
07
0a
04
02
fe
04
0b
0d
00
fc
02
fb
00
08
0c
07
08
11
1e
16
0e
0d
09
0f
11
1b
25
19
18
17
02
00
06
0b
fb
ff
ff
09
01
ff
fc
07
06
f6
ff
04
07
0c
11
0c
14
03
06
0a
05
16
17
10
18
11
0f
fe
0d
05
04
fa
0a
02
0b
02
03
f6
f0
f7
fd
02
0a
15
0f
11
08
fb
f5
f2
02
02
0e
0e
0a
11
0b
06
06
08
0b
08
01
07
ff
fd
fb
f6
fa
f6
f7
03
ff
0d
0c
03
04
fb
f6
f2
02
03
15
0e
14
09
06
03
f6
fe
02
fa
07
0a
08
f8
f4
ed
e7
f3
f6
f6
01
07
0c
fe
ff
ea
e3
ee
fb
07
0a
0c
ff
fe
05
00
02
f8
fb
ff
09
06
fc
03
ed
ee
e5
f0
f3
fd
f5
fe
0f
05
ed
e7
e5
e1
e9
f5
00
05
f8
07
00
05
05
fc
f6
ff
fd
00
ff
f8
ec
f6
ee
f5
f2
f8
00
0a
17
19
0a
e8
ed
e6
f3
fb
fe
01
05
00
07
0a
fb
fb
02
0b
11
fe
0e
ff
ea
f9
ef
fd
00
02
ff
12
23
2e
13
08
03
ff
f9
00
04
02
01
fe
ff
05
03
fc
f0
f8
04
0b
03
f2
ec
f7
fe
f8
0b
0a
09
19
27
1d
17
10
0d
0d
0a
08
0a
fe
03
f7
07
0f
02
fb
fa
05
05
06
04
f8
fe
f8
f2
fc
fa
ff
f5
04
0c
0d
06
0b
0d
10
0d
08
fc
fa
e7
ee
fb
fd
10
0c
fb
00
0e
03
03
f8
f7
f0
02
f4
f4
f8
e9
f5
f3
f2
fe
ff
01
fa
03
03
f7
e6
e6
f2
ff
0a
0d
08
f6
02
09
fe
00
00
f0
f5
f8
fd
f7
f3
e6
e8
dc
e7
e9
e9
f9
fb
f1
ed
ec
eb
ec
f6
04
fb
fd
f8
f8
01
04
fe
fe
00
ff
f3
03
fc
ef
f4
e4
dd
db
e6
dc
de
e8
ec
f9
fa
f3
ec
ef
f0
f6
fb
ff
fd
f7
fc
08
01
fb
02
f3
f2
fd
f9
f3
ee
e8
e4
dc
d5
d7
e1
e0
e9
f1
fb
f5
f3
fd
fb
fd
01
f8
f4
fd
03
fa
08
f9
f5
ff
e9
f7
fc
f9
f6
f6
ee
e1
e0
dc
ed
ed
f3
f5
fc
fc
00
01
03
f4
f8
f3
f3
00
0b
04
fd
fe
ff
f9
f3
e8
fa
fc
fa
f0
f4
fb
f9
fd
03
00
01
08
ff
00
03
01
06
fe
fd
fe
f9
ff
0c
09
03
fc
ff
fb
f1
e6
f8
f5
f6
f7
01
02
06
fb
07
04
04
04
09
0c
0a
0b
04
00
02
fd
02
04
08
fa
0d
08
03
fb
f8
f0
f2
f7
fc
f8
fc
07
0b
0b
13
0d
13
15
0b
11
0f
06
0c
01
02
08
0d
01
fc
0a
07
ff
0b
0f
02
f3
f1
f3
00
01
fd
01
fe
04
0b
fe
09
0e
0b
0a
02
01
f8
f8
01
00
0c
ff
04
fe
04
02
fd
08
02
00
f4
ef
f6
f9
f1
f4
f4
f6
fa
fe
02
f9
fa
fc
fa
f1
f9
f4
f7
04
0d
fd
0a
f7
01
0c
03
04
06
fd
05
f0
ee
ee
f4
f6
ed
ed
f8
f3
ee
f7
f2
ea
ec
f3
f1
f0
f8
f9
fc
04
02
06
09
07
02
03
07
ff
08
f6
f4
f2
f9
f5
e9
e8
df
e3
e7
d7
df
e1
ef
e7
f9
fe
fe
07
07
02
02
11
ff
03
02
05
ff
0c
06
02
03
04
fe
07
05
02
f6
fa
00
f9
f2
f4
fc
03
fb
02
09
fd
fa
00
01
fd
f5
f3
fb
05
07
04
fc
ec
f6
ff
f6
00
ef
fc
03
f0
04
ef
fb
02
f8
12
f7
04
f8
fc
0c
ff
06
03
ed
f7
fb
fd
02
0a
f7
f1
01
02
00
04
f9
e9
fa
0f
fc
08
12
f8
03
02
11
ff
00
01
eb
fd
fd
f3
f3
fa
f4
ff
02
0b
f1
f8
fd
09
04
0d
06
03
04
ff
18
03
03
fe
05
05
f6
06
fd
fe
08
0b
0a
f7
01
fe
07
07
0a
05
0b
14
12
18
2f
2f
1f
1b
1d
1a
0c
00
0f
0f
18
15
12
0e
fd
09
0d
11
05
fa
f1
03
06
06
fe
03
21
1c
28
2f
35
3a
38
27
27
26
1a
16
1a
1e
17
19
0e
0f
02
14
21
07
f9
f8
05
f7
fc
f9
fb
0c
0f
25
2d
28
28
1a
27
21
24
16
1e
23
31
2f
26
23
16
10
0c
09
07
0c
0a
f4
fe
f8
07
04
05
09
05
22
1e
11
21
2e
30
2b
32
31
3d
40
48
44
39
34
21
0f
04
01
09
11
08
f8
f4
f1
f4
fa
fb
f8
fd
05
12
18
26
2b
39
39
45
44
43
48
55
50
50
41
31
1e
11
ff
07
0a
fd
f9
fd
ff
03
02
fe
f7
f4
0d
0f
15
2f
3a
42
49
3e
3e
41
4c
4e
56
47
40
31
1d
0c
05
ff
fe
f9
ef
f9
01
fc
02
05
f6
f2
03
0c
11
22
2e
3d
3a
39
2c
37
41
4d
4e
50
3f
2b
22
14
07
f2
f9
01
f5
fc
07
ff
fe
06
ec
f6
f0
f7
0e
1d
34
3b
2c
27
28
2e
33
47
49
3f
35
2b
27
12
0f
ff
f6
f5
fc
01
f1
0a
0b
01
ed
ee
f1
ee
ff
0e
25
28
1f
19
18
27
33
38
40
37
27
21
1d
17
07
f9
ff
03
08
08
0b
03
0b
f4
eb
f3
f1
f0
fa
04
18
17
1c
0c
04
09
1f
2a
2a
1d
1e
12
0b
13
04
02
08
fe
fb
ee
f6
fe
04
06
f7
e9
f0
f2
fd
fa
1d
23
16
02
05
09
0a
1f
1f
12
10
10
09
02
01
03
12
01
f2
fd
fd
02
0b
0d
f6
e9
f7
f1
f5
0c
26
23
1b
09
0b
0b
0b
12
17
07
0d
0c
04
0a
08
06
05
fb
fd
f7
f7
00
12
08
fa
fe
02
01
ff
0e
1c
26
25
18
13
18
12
17
0e
07
fd
02
08
0c
0d
0c
14
f6
fb
ff
0b
fd
14
0e
f4
fb
01
fa
04
04
13
0e
15
07
0f
15
15
0a
05
f5
eb
ff
07
0b
09
0d
05
0e
f4
fc
fe
02
0d
0c
fb
01
fd
f6
ef
f9
f1
f9
fa
04
01
03
04
04
e5
e0
e2
ee
f8
03
06
06
03
fc
f4
fe
0e
02
10
0f
09
fe
f7
f1
ea
e6
ea
e2
f1
e7
ee
f4
f4
ed
eb
df
ea
ed
04
fd
02
0d
ff
f5
f8
06
09
03
04
0d
fa
fc
ef
ec
ec
ed
da
d9
e1
e3
e4
f0
f2
ec
e0
e1
e5
ef
f4
07
03
10
10
f8
f9
0f
fa
0d
16
0f
00
fa
fa
f8
f9
f5
ee
e8
e5
f2
f0
fc
f8
ff
f5
e9
f1
f6
fa
fd
04
11
0a
00
fe
f0
fd
fb
11
1a
04
fe
01
06
0a
08
fa
fe
fa
04
01
08
06
04
0a
09
08
0a
0e
06
06
09
ec
00
f3
01
fc
ff
14
17
14
0e
18
16
12
0e
12
18
17
17
19
26
1b
1c
1c
10
0b
14
0a
fe
06
01
f8
03
fc
f7
0f
0b
09
1a
2a
1d
10
0b
0b
1b
18
27
2b
21
2d
2c
1e
21
16
1a
15
10
0a
fe
fc
04
03
03
fd
f2
f6
06
06
0c
1a
13
03
03
10
0d
1a
22
26
2a
22
25
19
25
1a
10
06
0b
f9
0a
fa
f2
06
fc
0e
07
06
07
f5
fe
12
1e
0c
1a
0c
0a
12
17
0d
17
14
14
15
11
07
09
0d
05
15
06
03
fd
04
04
01
fb
04
f7
08
0d
ff
21
1e
0c
16
0b
14
10
0d
0f
05
09
0b
08
07
08
0e
15
14
11
fa
f9
08
f9
11
f6
ec
07
02
05
0d
04
14
14
17
10
0e
11
1d
15
15
15
15
0e
1f
0c
0f
14
06
08
fb
0d
fc
fd
f9
f9
00
01
0a
02
fc
fe
04
04
0d
00
09
1d
1e
15
1a
1a
2d
2a
1a
0a
17
0c
fc
0a
f6
fe
01
f9
0f
fb
02
0d
07
02
f5
04
03
f9
01
00
ff
f8
0b
0a
ff
06
09
0c
04
fc
02
fe
f2
ff
08
f0
ff
12
fe
ef
f6
f7
fb
f2
f3
f5
f8
f6
f6
fb
ff
f7
f4
f7
f1
f0
f5
03
f5
fd
fe
fc
fb
f7
01
f8
f6
fb
f5
f6
ff
03
fc
f1
f0
fa
f6
ed
f6
fb
04
fd
f6
f9
fc
f6
fd
00
ee
f7
f2
f7
fc
f9
00
f6
ff
f6
fd
f9
05
fc
fa
f0
f6
fd
ed
fe
f7
f1
f0
fb
eb
f1
f0
f8
ed
f8
fe
f9
f8
f1
01
00
f7
fc
03
05
04
f7
f9
08
01
f0
fb
f7
fc
f1
ee
ee
e2
dd
ef
e8
f0
e9
f2
ff
05
0a
02
08
08
0b
0c
04
04
f3
f3
fe
fb
03
ff
f1
fa
f0
f9
07
fc
f9
fc
fd
ec
f5
ef
f2
fc
fc
fb
f3
07
01
00
0a
0d
06
f8
ef
fb
fc
f9
01
f6
f8
fe
f4
ff
02
05
fe
f6
ea
f0
e8
eb
ec
e3
ef
01
fc
06
fc
09
06
01
0b
04
fd
f9
fc
fa
f0
ff
fb
f3
ef
f7
fb
fe
00
f5
f3
e9
e3
ee
ea
f4
ef
01
05
12
13
0f
13
09
0b
0a
fb
fe
fb
f0
f1
f3
f1
eb
f9
fe
fc
f5
ee
e9
f4
ec
f2
e8
ee
f8
0c
0b
19
1b
26
22
1b
1d
0c
0e
00
f5
f3
f9
00
ef
e6
ea
f0
fb
f4
f3
f5
ef
f2
ed
f7
f7
fe
06
0c
25
32
2f
2f
2a
31
1b
12
1a
0c
ff
f2
f5
fa
f9
e0
e4
ec
e7
ee
e9
e1
e2
e6
e5
e7
f9
f0
02
0a
17
2a
30
32
35
33
24
25
10
08
04
fb
ff
f6
ed
eb
f1
eb
eb
df
d8
d6
e0
e1
f1
e7
ed
e4
ea
f6
18
19
30
2e
32
33
32
2b
17
0a
fd
02
fd
06
f5
e2
f1
df
e1
dd
d8
dc
dd
f6
ec
f1
e4
df
e5
f2
05
1e
22
30
2c
31
37
2a
1b
12
05
fa
06
fb
f7
e1
ec
e1
e0
de
df
e0
eb
03
ff
ff
ee
ea
e3
f8
04
11
22
20
31
33
33
23
1c
11
fd
fb
fe
f5
f1
ed
ed
ef
df
de
e8
e8
ed
ff
05
fb
f1
f2
e8
fa
fb
13
18
13
26
3b
32
2f
2b
15
fd
02
f7
ee
ea
e7
f6
ef
f1
e3
e0
df
ef
f5
03
fd
e8
eb
ed
ed
fc
02
ff
0a
0f
1e
2c
2f
38
22
00
fb
f9
f4
e7
f1
fc
fd
05
ff
ec
f1
f0
f1
f6
ee
ef
e4
e4
f7
ec
f5
e9
ec
f5
f8
06
12
2a
2d
fb
ff
fc
f9
f5
fc
09
0a
20
0f
fc
fb
f3
f2
ed
ee
ee
e2
ee
f3
ef
f1
f0
e7
e4
ec
e8
ef
0d
17
02
f9
f9
f9
f8
09
0e
14
1d
1f
15
10
0d
07
03
00
f3
02
fb
fe
01
f5
f5
ed
ec
e8
ee
e7
ec
fd
f5
f8
f1
fa
01
02
13
1d
2d
22
18
12
0f
04
06
09
0a
0f
15
13
12
0a
fc
f1
f0
ee
f0
f0
e1
e6
f1
fc
ff
f9
fb
02
11
1e
27
20
1e
18
0a
0a
ff
07
04
0f
12
17
23
12
0a
f9
f4
ef
f1
e9
e9
ed
ef
01
fd
fd
fa
03
06
11
23
24
17
18
08
0b
10
02
08
14
1a
19
13
15
0a
f1
ec
f8
f0
f1
ee
ff
f6
f5
f7
fa
f6
f8
fe
15
19
12
14
0f
11
12
11
05
0e
14
0d
11
10
06
05
fc
f0
f9
f4
ed
eb
ff
03
fe
fd
f6
ff
06
05
07
10
0a
09
06
0f
0c
07
0a
05
0d
0d
fc
08
03
fa
fc
f2
f2
f4
f1
f2
f3
f9
fd
f5
f4
f9
fc
00
fb
07
0e
04
08
f8
fa
fa
00
f4
fc
f7
00
f8
f8
fa
f9
ff
f9
f3
fd
f0
fd
f7
f4
f4
f0
f0
ff
fc
f7
ff
fc
f5
fe
ee
ed
f7
f5
ee
f8
f0
f4
f9
f8
03
f9
05
00
f9
f4
f3
f6
f1
fc
00
ff
f8
f5
fc
fa
00
00
f8
ec
eb
e9
e5
ec
e9
e3
e7
ec
ef
f9
f8
f9
fc
f8
f5
ff
f3
f4
f9
f1
f2
05
03
05
ff
ff
fe
f5
f9
eb
e4
ec
e4
e2
ee
e9
ef
ef
f6
f6
f8
f1
f5
f4
f6
00
f5
f7
f6
fe
f7
f9
ee
f1
01
f9
f7
f9
fa
f6
f5
e8
ef
ed
ea
e9
f7
f2
eb
f0
f4
f5
f4
fd
00
02
f2
f2
f9
f7
f2
f9
02
f3
fe
ff
fc
f8
f3
ec
ea
f3
e9
e2
df
dc
e9
e9
fe
f9
f9
fe
f8
f4
f7
fb
ef
ed
f9
fa
f6
f5
05
f8
f6
f3
00
fa
00
f3
f3
fd
00
ed
f1
fb
f1
fa
fd
fc
00
03
ff
f2
f2
fc
01
f6
ef
0a
12
0a
10
09
10
01
f9
08
0a
0d
07
09
10
03
03
02
11
f9
06
05
08
06
0e
07
fd
0a
09
0b
15
09
fd
0c
0f
15
0f
01
06
03
04
03
0a
02
0b
09
08
03
0e
10
0e
0b
ff
0e
0f
fe
0e
fc
ff
fe
06
fd
fe
09
06
15
13
09
0a
09
00
00
0f
10
10
0c
00
0e
0b
0a
05
06
07
1e
0b
fb
fa
10
0c
f9
01
03
03
fd
03
16
04
f4
10
12
1f
2b
1a
1b
27
19
0f
13
05
f7
f8
f7
03
0d
fd
02
fc
10
0a
04
09
0a
13
04
0a
01
0d
0d
1b
06
13
0c
06
fc
f4
e9
e4
eb
de
db
eb
f2
ed
f2
f8
ef
f5
01
0b
0d
11
08
11
11
08
0e
1c
0c
08
f4
e7
ec
e7
e7
dd
d4
da
d2
e2
ec
f0
f3
04
fc
00
fe
04
01
ff
0d
09
02
0b
06
0c
fd
0b
0b
fc
fe
f4
ec
ee
dd
d9
db
e1
dc
ee
f0
01
1a
1d
1c
19
14
0a
00
ff
fb
11
01
00
08
09
09
1a
09
f0
f7
ef
e7
e4
e9
e2
e4
e6
ee
fd
11
21
38
36
43
3d
23
21
13
f6
07
1d
15
0d
03
ff
0e
14
f5
ee
db
dd
d7
dc
e1
df
ee
f9
fb
16
21
39
43
4f
5d
57
44
28
0b
07
fe
0a
02
f9
0c
14
26
08
ec
de
cf
d0
cf
d3
df
dd
f0
ec
01
12
2a
40
50
64
5f
64
55
3d
15
0c
f7
05
f3
fb
fc
08
10
fe
ee
ce
cd
c1
c7
ca
d7
e5
e7
ef
00
0f
1f
41
4d
66
6b
60
5b
41
12
00
08
07
0e
04
09
01
0b
f3
e4
dd
c8
bf
cc
d4
e8
f9
f9
fb
f5
0f
27
3f
4c
6b
67
66
5f
45
1a
f5
fc
0a
05
04
ef
0e
06
fc
e7
d4
c9
cb
cd
de
01
0c
0d
12
0b
1b
2d
3f
4b
57
69
66
6a
5a
32
08
11
07
0a
fe
0e
1d
0b
ff
e7
ea
d8
d2
d6
eb
12
13
20
16
13
21
2e
3f
40
48
48
50
5b
4c
30
ff
02
0c
0e
07
0f
15
10
0b
fe
01
f3
f1
e5
f4
0c
1c
16
1b
19
1a
29
33
29
26
3c
3a
3c
30
02
dc
f2
ff
f9
fc
08
17
0a
01
09
21
11
10
07
0b
1e
1e
14
15
16
1d
22
26
17
1b
21
2e
4b
41
21
f4
fb
0f
0c
07
fb
0f
0e
13
20
2b
2a
21
22
1e
2c
2b
22
17
19
20
1e
0f
f8
eb
ec
fe
0e
38
33
02
12
0c
17
07
10
05
01
19
2b
40
42
3a
31
33
2f
33
2b
24
17
1f
1f
0c
fa
ea
d4
cc
e1
f9
0e
13
02
0a
0e
07
01
04
0b
14
3c
45
48
49
46
42
3c
38
28
26
2a
20
20
19
06
f0
e7
d9
d0
e5
02
0b
0d
07
fd
fd
fc
05
08
19
2e
43
50
49
46
38
3c
32
27
28
1d
25
23
18
07
f9
e3
da
df
e1
f8
0f
fc
11
fd
0a
fa
0b
15
1a
29
37
42
3b
32
33
2f
27
20
1b
1b
16
15
0c
ff
f4
ea
e9
e1
e7
05
06
02
ff
01
06
0a
10
06
14
1c
28
23
2c
2b
2a
1d
1c
17
1b
0c
0b
06
06
f2
e9
ec
e0
e7
ed
08
fa
fa
0c
02
01
12
01
01
0e
0a
18
19
1e
24
18
11
0d
0f
07
0e
05
fb
03
fb
fc
f8
f3
ec
f6
0e
07
07
05
fb
09
03
ff
0b
01
0b
0e
09
03
0a
04
03
fe
f9
f9
f5
f5
f8
ee
fe
fb
f5
f3
fb
f1
0f
0c
0c
0d
04
0a
0a
13
0f
ff
fc
03
f9
fb
ed
ee
e9
ea
e8
da
e2
e3
de
e8
ee
ea
fb
03
05
fc
0c
0a
0b
14
0c
f6
f4
09
0c
09
fc
02
f3
e9
f1
e5
e0
db
d2
d5
d5
dc
e1
ee
ec
fc
03
0c
07
09
06
0c
02
06
0d
fe
fa
06
00
0c
10
07
05
eb
e7
e1
e0
d5
d6
d9
da
e1
ef
f2
f7
0a
12
12
ff
10
0a
0a
02
0d
0c
03
fa
03
0b
fd
02
fe
03
f8
f7
e9
e2
eb
ff
f1
f6
ed
fe
fe
f0
04
0c
fd
05
f4
08
f9
04
00
03
03
11
00
0c
0e
08
02
03
02
04
fe
fa
f9
01
f8
ee
00
01
fe
00
f8
02
07
04
04
fe
10
03
0b
0a
09
03
f5
f6
0c
fa
03
09
05
03
0f
02
09
fd
0f
fb
07
0b
00
05
0f
09
ff
0b
0c
11
09
11
04
f1
fe
fd
00
f8
fc
ff
f6
f0
f7
f6
f5
01
02
01
f7
f1
ff
fc
fb
f2
f5
f3
f4
ef
f6
fd
f6
fa
f3
f2
ff
05
f4
f8
f3
f3
f5
f0
f9
f6
fa
f9
f0
fb
f4
f9
fb
fd
f4
fd
f5
fb
fa
fe
fa
fe
f9
f3
f4
03
00
fd
ef
fc
f7
fb
f9
f0
f9
ee
f3
f9
f3
f4
e9
eb
f4
00
ff
04
fb
f2
f6
fd
ff
fe
fc
fa
02
f9
f7
00
fc
f1
02
f6
f3
f1
e6
eb
df
ec
e1
ee
ec
f4
fc
fe
07
00
09
03
0c
11
04
fa
f7
f5
f9
f3
ef
ff
06
fb
fa
f3
fc
06
ff
fe
fa
fa
ec
f3
f8
f6
f2
f7
f5
f7
fd
04
03
fe
12
06
f5
f3
f3
fe
f0
f5
01
f4
f1
fa
fd
08
fe
02
fa
ed
e8
ef
ed
ea
f0
f9
f9
fc
07
07
fe
07
0c
09
03
f8
fc
06
f8
f1
f1
f9
f3
fb
00
f9
f8
f9
f1
ec
ec
dd
e0
e5
e7
ef
04
0b
11
0b
11
12
0f
09
04
01
fd
fe
f4
ee
fe
f6
f4
ef
f4
ec
f9
f1
f2
f1
ea
ec
e7
f2
ff
03
0d
19
20
28
25
1b
1a
0f
0f
07
f0
f0
f3
ff
ec
e8
e4
ec
ed
ee
e3
ec
e8
f0
e7
e9
f5
f6
00
12
19
2a
37
3b
3d
39
2d
18
0f
07
fa
fd
f2
02
f3
e9
ea
ee
e9
e5
dd
e8
df
eb
e8
f3
ee
f7
0d
1a
1e
2f
34
40
3f
3c
31
24
15
0b
f7
06
f9
f7
f1
e5
ef
eb
df
dc
d8
e0
da
ee
ee
e8
ee
f4
07
0e
1b
2c
3a
44
44
47
31
20
1e
13
01
ff
01
06
fa
e2
e6
ea
de
d7
d6
db
e8
f6
f3
ff
f2
fa
fa
15
23
29
3f
42
3c
48
39
29
23
12
05
f8
f9
08
ec
e1
e9
ed
dd
dc
de
f0
f8
06
11
0a
0a
fc
05
1a
2c
2b
3e
41
46
46
39
25
1d
14
ff
f9
01
fc
ed
ee
e7
e7
e4
e4
e7
f2
00
19
1f
16
16
10
0a
1e
2f
2b
36
2e
3f
48
44
2a
27
15
f8
fd
f0
f6
ea
fb
f3
fa
fc
f4
ec
f9
03
16
18
14
19
0e
11
21
22
2a
21
1f
24
34
3e
39
3b
2a
08
fc
f3
00
ee
f9
04
10
10
10
0c
ff
04
10
1a
11
11
0a
17
16
1d
0f
05
04
09
04
0f
24
30
31
fb
fa
01
ec
f6
fc
0b
1f
2e
23
1e
15
12
1b
19
11
0b
15
0e
15
17
03
f8
f2
ec
f5
e9
f2
0e
17
fd
f8
f8
fe
f4
0c
09
23
33
31
2c
2f
23
2a
29
15
1f
1a
15
1a
0f
04
03
f7
f3
fa
ea
df
e0
f8
f3
f0
ff
fb
01
08
0b
26
2c
3d
2f
3a
30
28
22
18
1a
21
21
21
16
0e
07
ef
e9
ed
ff
f0
df
ef
f8
ff
fe
04
02
fd
0e
27
2f
37
2c
2b
27
27
17
1d
1b
21
15
24
15
11
05
f9
ed
e7
ef
ec
f0
f8
fb
f5
01
fc
ff
fe
11
1e
28
34
30
26
27
2a
1a
16
18
1d
11
1a
12
0e
fa
f4
f6
e9
f0
ee
e5
04
f2
fc
f7
00
fc
f5
04
1c
20
29
1f
22
1c
1d
17
15
14
08
0a
07
0b
fa
f2
f3
f0
f0
f2
f0
f8
f8
fe
fa
fc
ef
f2
04
03
0f
13
1b
1f
1d
1d
15
0c
0c
04
04
04
01
fb
fb
ee
f6
ed
ea
f7
fd
f5
ff
f9
fa
fc
f4
ff
f9
05
07
02
13
0e
0f
0b
02
08
03
01
fe
fc
fc
02
f6
fc
f7
fd
f9
f4
fb
ed
02
f5
f4
ff
f0
f6
ff
fb
fe
fc
05
fd
05
fc
fc
f3
f3
ea
ef
f1
ed
f6
fb
f4
fd
02
f2
ff
f6
f7
f4
fe
f4
f5
f9
ef
f4
03
05
fa
f7
fe
f2
f2
f4
f0
ec
ed
e4
e7
ed
e9
ee
fa
ff
f7
00
f6
fb
fd
fe
fc
f7
fa
fd
f7
fb
fa
ef
f6
f5
00
f4
f5
ee
ef
e5
e3
e2
e1
ee
f2
f8
f6
f4
f1
f8
fd
f5
f8
eb
fb
fa
ff
ff
f6
fc
f8
f3
f3
f9
fd
f1
f3
eb
e5
e9
e6
e2
ee
f6
e9
ee
ed
ef
fa
ff
f3
f6
fa
f5
fe
f5
ff
f5
fb
fb
f5
fc
fe
f7
f0
f3
fc
f3
e5
dd
e7
dd
ea
ef
fb
f6
f1
f5
f8
f9
fc
f8
f9
f7
fa
fb
fb
05
00
f8
02
f8
fd
f8
f4
fc
fc
00
fd
f3
fb
f6
ee
fa
ff
f9
f5
ff
fd
01
f7
fd
ff
f1
f5
fd
02
0e
10
12
1b
04
f8
01
0c
12
05
00
08
02
09
0a
08
06
fc
0a
07
0a
10
02
0f
12
01
01
05
10
f9
fd
03
11
0f
0a
03
05
10
07
fb
fc
02
03
00
fc
f9
08
06
f8
07
00
01
06
03
fe
04
00
0b
0a
ff
09
04
01
0b
08
0f
0c
0d
ff
13
0e
0d
04
05
11
07
1a
10
0c
14
0e
04
02
06
fd
03
01
fc
05
16
fa
02
17
0b
f9
09
09
1a
13
1b
21
13
0f
13
09
fb
ef
f0
f3
08
0e
0b
f4
02
13
fd
08
06
12
1a
fe
03
00
0f
0c
12
10
fe
04
06
03
f1
e9
e4
de
de
e2
ec
ef
ea
ef
f8
f4
ef
00
13
08
08
15
07
fe
fe
03
12
07
f3
f4
ec
ea
e5
e3
db
d5
c8
d3
d2
da
eb
e8
f0
f5
f6
f7
fc
f9
06
0a
01
fc
12
0d
03
06
0b
0f
f5
f8
fb
f7
f2
e7
db
da
c9
cf
d8
e7
f3
02
fb
0a
ff
06
fc
f2
01
07
08
0e
0b
fe
fd
07
09
00
f8
f4
fc
ee
f2
e5
ec
df
df
e5
ec
f5
00
0b
1c
1c
20
17
01
ff
f0
06
18
f9
fa
05
15
15
13
06
ec
f0
e9
e2
e8
e5
e2
db
e9
e6
fc
03
17
24
33
2c
31
28
0e
ff
f8
09
12
02
00
fa
f5
18
17
fc
e5
de
e2
d8
dd
e3
e1
e3
e1
e7
ed
fd
0f
1f
36
35
32
35
13
08
05
f9
08
06
00
ff
07
1b
07
ef
e9
d7
d8
c5
d6
d9
e0
dc
da
db
de
f8
fe
23
2f
36
3f
3e
20
0d
fa
0b
0e
ff
fa
09
fb
25
0c
ea
d6
d9
d2
ce
dc
e4
e2
e8
db
d6
e1
ee
01
1d
28
34
47
3f
2a
02
e9
f7
0b
06
06
f7
13
18
fe
ed
da
d5
cc
d4
e3
f9
f8
ee
e4
d4
e2
eb
07
20
21
31
36
43
34
19
f1
0a
07
08
f6
fd
10
1a
fd
f6
ee
e3
e0
e5
ef
06
02
fe
ec
e3
e3
f0
00
12
1a
1d
26
30
2d
1a
f0
f7
08
0f
09
08
20
0f
05
f7
01
ee
dd
dc
ea
fb
fd
f6
e9
e5
f3
f7
0b
09
16
13
17
18
16
f3
db
e7
04
f5
f5
07
1d
0e
02
06
0d
0b
fc
f6
ee
f7
f1
f3
df
ed
f4
07
03
0c
0a
15
2b
27
27
fe
d7
ef
02
04
09
ff
0a
17
0f
14
26
22
1b
07
fe
02
f8
f6
ee
ed
f8
04
0a
01
07
fd
12
20
3f
20
ee
03
0e
0f
05
fd
14
0c
1b
21
2c
36
22
1e
13
16
01
05
ff
0c
06
0d
0d
fd
f9
e7
ec
fd
11
21
12
0e
04
0f
fe
ff
01
09
14
25
34
39
31
29
14
0f
00
05
03
11
1f
19
1e
14
fd
f7
e1
e6
ea
09
15
15
fc
08
01
06
04
06
13
2c
37
30
2c
1e
1d
10
06
0d
12
18
24
1b
1e
0c
01
f1
eb
e0
ea
0b
14
fe
0b
fc
fc
f3
0a
0e
19
20
25
33
2c
1c
1c
10
16
0a
16
12
20
1c
19
05
fe
f2
f1
f5
ff
03
02
fd
fc
fb
01
07
0b
14
0b
0f
25
20
20
18
16
0d
0d
0c
08
0d
0a
0a
08
03
f7
f5
e9
f3
02
02
f9
05
19
f7
0f
0a
10
0e
06
0e
12
1b
0d
06
04
0a
01
f6
f9
06
fe
fb
fc
f9
f7
f5
f7
f5
04
02
04
fa
fc
ff
fb
00
03
06
03
ff
03
02
08
06
f4
ed
f2
ed
eb
f0
ea
f3
f3
fa
f4
f6
01
03
05
08
06
0d
05
02
07
02
10
0d
fb
fe
03
01
fc
ea
ed
e2
e1
dd
da
d5
e6
dc
e4
f4
ed
f8
0d
04
02
11
13
15
0d
06
00
06
14
0c
0a
00
fa
f1
e4
e5
da
ce
d1
c9
ce
cd
c9
d5
dc
e3
f2
02
09
10
11
0f
1d
0d
11
06
07
01
05
ff
f8
05
0a
f1
ee
ed
db
d8
d2
d6
ce
cb
d8
db
e4
f0
fb
17
0c
0a
02
05
0f
fe
0d
06
00
03
07
fd
fd
06
13
08
f6
f4
ea
f0
f4
f3
f1
ee
f9
04
03
f6
09
0a
08
0a
01
07
f1
fe
03
05
04
fb
04
fb
fc
07
f9
06
0a
04
fb
0f
08
1c
13
13
06
17
00
05
08
03
fc
06
0a
0b
10
0d
0c
07
02
10
0a
f5
0a
06
10
fa
12
fb
07
12
04
08
07
04
17
06
ff
ff
03
f8
f6
03
02
0b
00
06
00
f7
fd
03
07
07
0e
03
01
fb
f7
02
03
00
01
ff
02
01
02
fb
00
01
0c
06
02
06
03
0a
0b
09
00
04
04
f9
06
05
00
03
03
0c
05
00
0d
fe
00
0d
0b
0b
09
02
04
05
0b
06
fe
fa
ff
fe
04
09
04
09
00
01
02
09
f9
04
0a
1c
1a
28
24
1f
21
22
32
36
26
27
2c
24
1b
20
10
05
06
09
00
f9
02
00
05
00
fd
07
0a
12
10
1b
1c
1e
2b
27
32
2d
32
34
2d
26
1f
23
0d
16
0f
0d
0e
fd
06
04
01
06
08
fd
f8
05
01
07
0e
19
19
18
2a
2e
33
3d
41
3d
31
3a
34
21
21
1d
10
0f
0c
07
fb
ff
04
fa
0a
05
00
08
ff
06
fd
0d
0d
19
18
2c
29
40
45
49
41
3f
3b
37
2d
22
11
08
fd
02
02
ff
03
f8
03
04
fb
f8
f9
04
f8
ff
fe
08
08
1f
2d
31
3c
3e
45
43
49
37
30
20
15
10
fd
f8
f9
04
fd
04
05
07
fa
f9
fa
f0
eb
ef
fb
fe
05
1c
1f
34
40
3c
4a
4f
3a
3f
34
29
10
13
05
06
01
06
ff
fe
0b
0a
02
ff
e6
f4
f4
e7
f3
ff
03
14
27
2e
36
45
40
3d
40
32
2d
22
0e
08
0b
03
01
03
09
09
0d
03
09
fa
ee
e4
ec
e6
ee
f3
07
11
25
34
3e
43
47
38
36
31
20
17
0e
0d
08
05
01
07
04
0c
08
fd
fe
f9
e9
eb
ec
e9
ed
f0
03
1c
2c
2e
2c
2b
37
2a
28
21
1b
16
0b
05
04
fa
fa
f4
04
09
01
05
f7
ec
e6
e6
e8
e1
f4
f7
06
12
1f
1b
1e
1e
1d
13
1a
0e
fc
f6
f8
f4
f8
f9
fd
ff
03
0b
fe
07
f7
e7
e1
ea
e5
e8
f1
f9
ff
10
1a
1d
0f
0f
0c
0e
09
f6
ed
e5
f2
f3
f4
ee
f5
ee
fd
f8
05
03
fd
e2
de
ef
ec
eb
e9
f3
f1
07
18
13
06
07
fc
05
f9
e4
e5
e9
eb
e3
ef
e6
e0
e9
02
fa
fa
fb
ed
d8
dd
ea
e9
e8
f5
fb
fe
00
09
0e
01
fb
fa
f3
ea
e8
ed
f1
f3
ee
e8
f1
de
ec
f8
06
02
00
f0
e1
ea
e5
e4
f3
fd
f9
fa
ff
08
05
fd
eb
f4
fa
00
fd
fa
02
f8
eb
eb
f1
ea
ec
fc
01
04
fe
f4
e5
e8
ee
e1
f0
f7
f3
f6
02
07
09
03
f0
06
07
09
13
13
06
fc
fb
f5
f5
ed
f6
07
fe
06
fc
fd
e3
e3
ec
e5
e7
ec
ee
f2
f3
ff
0d
0b
0a
0c
19
21
17
17
04
f8
ed
e9
f9
ed
fe
04
fd
06
06
f8
f0
ec
e6
e7
db
e4
e2
e3
f7
01
0c
0f
05
13
1d
13
11
11
fa
f4
f3
e6
f2
f1
f7
fb
f8
07
0b
f3
f0
f0
ed
e6
dc
d9
e3
df
e5
f2
f4
f3
fe
fd
0d
08
fc
0d
03
f1
f8
e7
f3
f2
fb
fb
08
0d
09
f4
eb
f9
e7
de
da
da
d6
d5
d7
d8
dd
de
e5
e7
ef
ff
01
07
03
fc
ef
f6
f8
f6
f2
07
02
06
08
f1
f0
fb
ef
e4
d9
da
d3
de
d2
cf
cc
d2
da
e7
ed
00
0e
03
04
fb
f0
f1
f5
f3
f8
0f
fe
f9
fc
f7
ee
f5
f7
f0
ef
e7
de
dc
d4
d1
ce
db
e0
dd
ee
fa
fb
ff
f9
fd
fa
f5
fc
fb
05
08
fb
fb
00
fe
f7
ea
f6
ef
f7
e7
e7
df
d5
d8
d3
c9
c9
d2
d0
d7
ea
e6
f1
f1
f2
e8
ef
02
f9
f9
0b
ff
ff
fb
f7
e7
f1
f0
f3
e8
e9
df
db
c9
d0
c1
be
cc
ce
d8
d6
e3
dc
df
dc
df
f8
07
03
ff
03
05
fc
ff
f8
f0
d8
d1
e0
e4
d5
d3
c9
c8
bb
bb
c4
c3
c7
c7
d3
c3
c6
c8
e3
f2
07
fe
03
f4
04
00
fa
fb
03
f4
e9
e2
cf
c5
c1
c4
b5
b9
b4
ba
ba
b1
a3
aa
b0
c2
d2
ec
f6
01
02
fc
04
04
fc
01
00
06
fd
04
f4
f6
ed
de
d4
cf
be
be
cc
c4
cf
bf
c5
cb
de
d7
e6
f9
f8
fe
00
05
0d
09
05
04
07
fc
f9
01
09
08
f6
f9
f6
ea
e9
ea
e5
ed
ee
e2
ed
f5
fc
ff
fc
01
fb
fa
fc
02
0a
04
ff
0b
04
06
03
02
ff
ff
fc
01
fc
f7
f8
05
01
0a
06
01
fa
fd
02
02
fc
0a
0c
0b
fd
06
05
fd
ff
01
f0
f0
f5
fd
eb
fe
ff
fe
07
01
fc
07
f7
06
05
0e
0c
09
05
f5
f6
03
15
f7
03
f6
01
fb
fc
f4
f2
f0
fe
f5
f5
02
08
08
f8
ee
fe
f7
04
f7
f8
02
03
08
fa
05
03
02
fc
02
00
ff
fa
f9
ed
0b
0d
fe
02
fb
00
ee
ee
e1
f2
ec
e4
f8
e5
de
d3
d2
db
df
e1
eb
f3
fa
fd
00
f9
01
f7
00
f8
f8
fa
f5
f6
fb
f3
ef
ee
df
ec
ee
f8
06
f7
01
01
f8
f3
f8
fe
ed
f1
db
ec
f7
f1
08
fd
fd
f8
f2
ed
fa
0a
fe
fe
ff
f6
f2
fa
0b
0c
1e
26
27
2c
2c
24
2d
15
13
13
00
07
08
f9
fa
f9
06
fb
06
fe
08
07
ff
06
f5
fe
02
04
0f
19
2f
35
42
43
42
43
45
32
36
1f
11
0a
f8
0c
02
01
09
05
f6
fb
fb
fe
fe
fc
fe
f7
f3
03
09
15
1f
2b
3a
4c
48
52
4f
4c
3d
27
12
01
07
05
06
fe
e9
01
03
fc
fb
ff
fa
04
ed
eb
ef
e8
fe
0b
1b
2a
31
47
49
4f
56
48
49
3b
30
1c
07
0e
05
02
fa
f8
f9
fd
ee
13
14
f1
e3
df
db
ed
01
09
18
23
32
44
4a
4e
50
4c
49
3f
31
19
0a
f9
fa
fb
00
fb
f4
f3
f9
02
03
ef
da
de
e3
e2
f5
10
21
2b
35
40
44
51
55
4c
44
41
2f
22
0d
fb
05
01
05
fe
fd
0b
00
fd
03
fb
d2
df
d8
e2
ee
0c
18
1d
28
33
38
3a
41
3c
39
30
21
23
0e
09
0e
01
04
f9
f2
fb
05
0f
05
f1
d9
da
d9
df
f5
03
12
1b
24
23
25
30
27
2a
17
14
12
0a
ff
04
0a
0a
04
fd
00
fc
03
0d
06
e4
e2
d5
d8
dd
de
f8
04
0a
12
13
18
18
15
0e
03
01
f5
f5
e1
ef
fd
f5
09
0b
ff
f7
05
1b
08
dd
d8
d6
d8
de
d9
f2
ff
fb
fd
f8
12
12
0a
fd
f7
f4
ec
e3
d0
f1
0b
f3
09
06
04
fd
10
18
08
d7
cc
d6
da
d6
de
e9
f3
f9
ef
f8
fa
02
04
f3
f6
ed
e8
da
dc
f0
18
04
03
fa
f7
03
03
1c
f9
e9
de
d6
dc
dd
dd
ed
f3
f3
ec
ec
03
02
04
f7
00
f6
e4
d4
c5
e2
03
09
06
f4
09
0c
09
11
00
ee
db
e2
e5
da
e0
e3
f3
f8
ea
f4
06
13
16
12
07
f6
e8
da
d7
e8
fb
f3
03
f7
0a
fa
fa
12
07
e8
e1
d7
d6
d4
dd
e2
f8
04
fd
07
1a
1c
17
1a
fc
f1
e9
d9
df
df
07
01
fc
0f
f6
ff
05
fd
f5
e7
ce
cf
d1
cd
d3
de
ee
fb
05
00
12
1a
0d
02
f8
f0
e7
e3
d7
ef
11
f9
f0
03
fa
07
08
09
fd
eb
db
d0
ca
c9
d4
d4
dd
de
e4
f3
fc
04
07
02
f8
e8
e0
de
e6
f7
07
f9
00
f2
00
f5
02
14
03
f7
e9
d2
d3
c9
d5
d2
d3
dd
dc
e2
eb
fc
03
fe
07
f7
f0
e6
ea
f4
09
fc
01
03
f7
eb
09
19
06
f6
e8
dd
d5
d0
cd
d2
d2
de
d9
e7
ef
fc
f8
05
08
fc
ec
fa
00
fe
f7
06
fe
13
fe
f9
08
10
12
f6
f6
e6
e2
dc
dc
da
cd
d6
ce
d2
df
dd
f1
f1
ef
ef
ee
0a
17
fc
f4
01
06
01
03
01
f8
02
0f
16
ff
f8
f7
e0
d2
cf
d0
c8
c5
c0
c2
c5
d7
e5
f0
01
12
24
16
fc
02
fc
f4
f5
fd
fa
00
01
0c
1c
22
1b
14
fc
fe
ea
e2
e3
e1
e4
e5
eb
f1
13
1e
35
25
1e
0c
fa
04
00
ff
fb
04
fc
fd
f6
fb
0b
29
31
2d
24
2b
1e
15
13
08
13
11
15
1d
2b
29
18
10
01
f5
f1
fe
05
03
01
fa
07
03
fd
0d
02
ff
17
13
29
22
2c
21
1a
08
fe
09
15
11
13
11
06
fd
fd
fb
0b
fe
fc
f8
fb
f2
fa
00
01
06
f7
fc
fd
fc
09
0d
07
00
05
fc
fb
fc
03
f3
fd
f4
fe
f9
ed
f4
09
0a
f8
f8
f5
00
fc
fa
07
f3
f7
07
f1
fa
fc
01
f4
fc
f3
fa
eb
f8
f3
f7
fb
f7
fb
ff
fc
02
f5
f8
fb
0a
ed
fc
fe
06
fc
f4
09
fe
f4
fc
f8
f7
fa
fe
ff
f8
ef
f9
ee
f9
02
01
fb
fe
fa
f5
04
fe
00
0d
ff
07
09
08
fa
02
03
02
03
f6
06
fb
04
04
03
fa
fd
02
f2
fd
05
08
fe
fd
fa
05
fe
02
05
05
0b
ff
02
01
00
fa
07
06
08
0c
07
01
00
05
06
0c
04
ff
01
ff
09
0c
0b
03
ff
00
03
fb
03
f8
0b
01
fd
06
04
05
08
10
1e
23
1f
29
20
24
28
2f
2c
2d
27
2d
1d
1f
1a
11
0c
08
ff
0a
03
08
07
09
01
fe
06
00
10
07
21
24
1c
24
23
25
2a
25
30
26
2b
1c
16
1a
0e
14
0a
08
04
01
03
03
0c
03
05
ff
00
00
0b
0c
11
12
14
20
2d
29
2b
36
30
2f
25
21
20
1a
0a
08
0b
0d
09
fe
05
f6
fd
fc
07
03
09
03
00
0b
0e
0c
11
0e
1b
2c
2c
2a
3e
3c
39
33
2b
27
18
05
05
07
f8
fd
fe
f4
01
05
03
fe
ff
fb
f7
f7
02
f4
01
02
07
15
1f
29
26
2e
27
24
26
26
17
13
09
01
fd
02
09
ff
fc
0a
08
0a
f6
ef
ec
f1
f5
ed
ed
f7
07
10
10
19
1c
26
23
2a
1f
1a
19
13
06
03
04
fa
06
ff
04
01
0c
fb
f1
e4
f2
e4
e2
eb
ed
fe
05
11
0a
15
16
2a
27
1c
1a
22
17
16
05
fd
00
ff
0c
ff
03
ff
0c
05
ef
e4
ec
e3
ec
e7
f7
fa
08
0d
10
1c
1f
1d
20
26
19
1b
19
13
09
09
08
ff
04
06
04
03
f7
fd
fa
e4
e5
df
df
e5
e9
ef
fe
0d
10
0e
10
0f
0e
19
1a
14
17
10
01
04
06
03
f5
f9
02
02
f8
f9
e4
e0
e8
e2
e0
eb
ea
f2
fc
ff
fc
f3
f6
fd
05
04
07
04
ff
fc
02
f4
fa
f7
f4
04
fc
fd
01
f7
d8
e2
e4
df
e5
e5
ea
e6
f2
ee
f8
ed
f0
f3
f8
05
fd
f8
fd
f4
fa
f9
fe
f3
ec
07
fe
fd
fd
f8
d3
e4
e9
e1
e9
eb
e9
e7
f0
f7
f4
ec
eb
f1
01
ff
f5
ef
fc
f7
f1
ea
e7
e2
e7
fd
f8
01
f8
f0
df
e8
e7
e4
e9
e8
e9
ea
f2
fc
f6
e3
df
e3
f8
ee
f3
ef
ff
ec
e0
e3
ed
de
f1
00
fa
01
01
ef
e4
ea
eb
e3
f4
f1
ec
f1
f0
fd
ec
de
e6
ed
f7
f2
00
04
0e
fc
ec
e5
ea
ed
e4
01
fb
fe
f9
f1
dd
e3
e2
e5
ee
f4
f7
f7
f8
fd
f6
f7
e8
f9
09
0a
09
12
07
ff
ee
f6
fa
f3
f5
fa
08
ff
f9
fd
de
e8
e6
db
eb
ef
f3
e8
f6
04
01
0d
fd
0d
18
17
13
0e
ff
ef
e6
ea
f2
eb
f4
f7
fa
05
fb
01
e9
e7
e4
e0
e5
e5
e6
e9
f6
fa
04
02
08
0d
11
09
09
00
02
f4
ef
e5
f5
ed
f3
01
fb
0d
02
f4
e9
ed
e3
e0
e1
e7
e4
e5
eb
f7
f4
f5
f5
02
02
fd
f9
f8
f7
e8
e4
ec
f0
e9
f9
04
05
04
ff
ef
ee
f2
e0
e5
e6
dc
e5
e8
ec
e8
f1
e8
ec
ec
f0
ed
f1
01
f0
eb
f5
e8
f1
ea
f7
00
ff
07
0a
f4
f7
f7
e6
de
e1
e9
e3
de
e9
db
e9
e4
e3
e2
ec
f3
01
04
fb
f0
f0
ea
f9
f4
f4
05
f8
f9
04
f6
ed
ec
fb
f2
f2
ed
e1
ea
dd
dd
e7
ea
e6
e3
e5
f6
ed
fb
ed
ea
f1
ef
ed
f9
01
04
fe
0c
fd
00
f1
e9
fb
f1
ee
f3
e5
e8
d7
db
cf
d6
d6
d4
d7
e0
e7
e9
ef
f0
ee
ec
f4
fc
fe
06
fc
fe
02
02
f5
ea
e6
e8
ea
e4
e6
dd
d1
d2
cf
cb
bf
c2
c1
cf
da
dd
d4
d4
d3
ea
01
f8
fa
fb
fb
f8
fc
08
ff
eb
da
d7
cb
dc
d8
ca
d1
c0
c5
bd
bf
bb
b7
c6
c2
c3
c6
c6
da
f7
00
06
fb
01
fd
04
fc
01
ff
fa
ed
e4
d0
c0
b9
b7
b6
bb
b3
b6
ab
b3
ad
a4
ae
bd
c3
ed
eb
ff
f9
08
01
fe
06
0c
00
02
f6
00
02
f6
f0
e1
d2
c6
cd
c4
c2
c0
c1
cd
c4
c9
dd
e1
e3
f9
fc
02
04
02
0d
02
01
0b
00
02
02
fc
01
08
fb
00
fd
ef
ea
f1
eb
ea
eb
e4
f4
f0
f5
f6
fc
05
fc
06
fc
03
03
fc
07
03
05
09
06
07
02
fe
00
09
fc
ff
05
fd
f9
09
00
03
05
fe
f7
00
fc
00
fd
0c
fe
07
07
ff
0f
04
fc
fe
00
fc
f7
fb
03
00
fa
04
fa
03
03
19
0c
fd
0e
0c
04
ff
fc
fe
09
f1
f1
f8
f7
07
fd
03
fc
f2
04
ef
f7
fb
07
10
03
02
01
fc
f9
f5
f6
08
0c
02
01
05
fb
0d
01
0e
0d
01
f8
f3
02
fa
04
f9
f8
04
f4
01
f8
e3
ed
e2
db
f5
dc
d4
cc
c6
e4
e0
d6
ec
ef
ea
fa
e9
f8
f7
00
ff
f1
fc
07
f4
f4
f4
fc
f5
e6
db
e9
f3
f4
fe
fe
02
0c
08
03
00
09
f5
ef
dd
f6
ec
f5
fe
f9
fc
f7
fb
fa
f7
fd
f6
eb
ff
fa
f4
07
11
15
22
25
2e
39
33
2b
27
1f
1a
10
0a
fb
fc
f9
fe
fc
02
02
05
f7
fd
09
fc
fd
04
fb
11
12
28
2f
3f
4d
49
4a
53
47
3f
3b
25
19
14
01
04
0b
fc
ff
04
00
0a
f1
04
f9
03
f9
fb
00
09
1a
1e
39
45
4e
57
60
5b
5b
53
49
31
2c
0d
03
03
11
fc
ff
f6
0a
fd
01
f9
08
fe
03
f6
f3
03
ff
19
23
39
4c
51
53
61
60
4d
46
39
2a
17
06
07
06
0c
03
f3
f5
04
f3
00
02
0b
ff
f0
ef
f7
fa
10
21
37
45
51
56
61
5e
4d
4b
37
2e
16
0e
ff
f4
ea
f1
fb
ff
fe
f1
f4
01
14
fa
e6
e4
ed
01
0c
27
34
43
50
4e
50
4c
3d
42
33
29
1e
19
fd
fb
f9
ff
0a
06
fe
07
00
06
08
f0
e5
e1
f2
f5
10
1e
2e
37
33
3a
31
34
2d
28
1d
1d
19
16
ff
05
09
0d
02
fb
fc
f7
02
0f
0e
fe
e2
f0
f5
fb
03
24
2a
28
1b
12
1a
19
18
0b
08
02
07
0d
03
fe
0c
fb
05
ec
fe
04
0a
1f
0c
e9
e7
eb
f2
f8
04
0e
22
11
09
08
04
08
03
00
f5
fd
f8
f7
f2
f0
06
fe
f7
0a
01
02
09
25
0d
df
db
ea
e8
eb
fc
09
09
0c
fd
f5
ef
f4
f6
ed
f6
ef
f5
f4
eb
ff
15
02
07
03
02
f4
0a
24
0c
de
de
df
f0
eb
00
ff
0a
04
f0
e2
e7
e5
e4
e9
f8
fe
f6
f0
e8
01
1c
ff
fc
04
fe
03
04
1c
06
eb
e0
de
e6
f4
f7
07
00
f8
e9
e0
e3
f1
ec
f9
f5
06
f9
ec
e7
f5
0d
02
fe
fa
01
f8
14
20
02
e5
df
e8
ea
f1
f5
fa
00
f3
e8
dc
ed
fb
fa
0c
0a
0b
fc
e5
e5
f1
05
05
fd
00
08
0d
05
1d
0b
ea
dd
e2
ed
ea
ec
f4
ff
f5
f2
f0
fe
01
10
0d
0d
06
f8
f9
e5
f3
15
f8
02
0c
f4
f2
ff
16
fe
e8
e2
e1
e2
e5
e7
f1
ef
ff
ec
ec
f7
fb
fe
fd
fd
f2
e9
f2
e7
fe
10
0a
f7
02
00
f7
11
1a
f6
ef
e0
d0
d6
da
e1
e1
e7
e4
e0
de
e7
ea
e9
f3
f9
f7
eb
e5
ec
fb
09
fd
ed
fd
f4
fd
0a
15
00
ec
e2
de
d6
cd
ca
d4
d3
d2
cc
d2
ca
d6
e4
f9
f0
f4
f5
f3
f5
07
0f
fe
f7
12
fe
0a
fe
0f
0f
f8
f2
df
d2
d4
d1
c9
c5
b9
c2
bd
c7
d3
eb
f3
ee
f5
ed
f2
fa
01
06
fd
f8
01
eb
f5
fc
21
0e
fd
f1
f0
dc
d9
cc
cf
be
c0
c2
bf
bd
ca
da
e5
e2
e5
f6
00
0b
03
fa
f3
f2
fe
f3
fa
f5
11
1e
04
f7
f1
e6
e1
d0
bc
b3
ad
aa
a7
ae
b4
c1
d4
df
f1
0e
22
18
fc
02
fe
05
f0
f4
02
08
11
18
26
24
08
ff
ef
e9
e0
cc
cd
ce
c8
d4
d0
dc
ec
07
21
30
2b
08
00
02
07
01
fb
12
09
fa
00
0a
18
40
3d
23
1d
15
1b
11
13
0f
09
0f
14
17
30
3f
3b
28
15
09
03
fa
02
03
f5
fd
04
0e
f5
0d
0f
18
38
34
4e
48
40
3f
44
2f
33
4c
49
49
43
25
1e
07
05
04
04
ff
fb
01
0a
07
fe
02
0d
05
fd
f9
12
0a
25
38
34
29
26
2d
1f
29
1e
16
10
19
05
ff
06
f9
03
05
00
f4
fb
fe
ff
f6
f6
02
f1
0b
04
05
07
11
13
1b
0f
12
fa
12
0b
0a
0a
03
f4
03
f8
f7
f7
f9
ff
03
07
fa
fd
05
04
fc
f4
f5
ef
fe
fb
f4
fd
fe
fe
ff
f8
f6
ff
fb
f6
fc
fb
fa
0a
fd
05
fe
01
0c
01
fe
06
fd
f7
fc
fb
fe
02
01
ff
09
03
08
fc
00
02
f7
08
07
02
fd
02
fd
03
03
ff
fe
f8
03
fc
03
fa
07
06
fa
f6
01
f8
fd
07
fc
fd
f5
ff
ff
06
00
00
f9
f4
fb
f6
fb
fb
04
fa
f5
fc
f7
f7
fa
02
fb
fd
05
01
fe
06
00
f4
f9
f3
fb
f3
ff
f3
ee
ee
00
f8
f7
f8
f2
f9
02
07
00
fd
00
fb
f9
05
07
08
f8
fc
fb
ee
ea
e1
d8
e2
dd
d8
d8
dc
d5
de
dd
e3
eb
f4
f5
fa
fd
02
01
05
01
06
fd
fc
f7
01
f4
eb
d6
c9
c0
af
bb
b4
b2
a5
a6
a9
aa
a8
ad
af
ca
d8
dd
e6
fb
ff
f9
fc
04
ff
07
08
fb
f9
f8
f3
e1
e6
e6
db
e0
e3
de
d4
d4
d7
cf
d4
d0
ce
d3
d8
de
eb
ea
f9
09
02
fd
00
fc
00
01
14
0e
fb
06
01
05
ef
ef
e8
de
d4
da
d4
d0
de
d8
e5
e1
e6
f2
e8
ea
fb
05
00
0c
05
03
04
09
0c
08
07
06
00
ff
02
ec
e9
e3
cb
ce
ca
c3
ce
d4
d5
e3
f5
f8
ea
ea
ec
00
f5
01
ff
fd
10
05
03
01
02
0e
0c
07
05
fc
ef
e1
cf
c5
cb
d1
d4
d5
da
e8
e1
f2
f6
f1
ee
f1
02
00
fd
f8
05
0b
12
0e
0d
0c
11
12
09
fa
fa
f6
e5
d8
d2
da
da
dc
de
da
e1
ef
e6
e7
e1
f6
05
08
05
f9
08
18
1a
13
13
22
15
18
12
06
0c
08
f7
e2
ea
de
e8
e7
e4
ea
ed
f3
f8
f8
f1
f4
01
00
fb
04
0f
1c
0f
15
15
20
27
17
12
18
18
14
fa
f7
f0
fc
fc
f3
f4
f3
ef
ec
f8
f1
ee
e7
f3
07
f7
02
0b
1c
18
23
2a
2c
2d
24
1b
22
22
1a
10
09
13
0e
0c
10
fb
fc
f8
f7
f9
fb
e8
e4
fa
f6
f8
fc
0b
19
15
21
1e
23
23
2a
23
1c
25
1b
1e
1b
1b
28
23
1c
12
04
f4
f1
ef
f7
ea
e3
f1
f8
ff
04
10
15
0d
21
19
22
19
17
14
14
11
0e
07
1a
1f
22
21
24
10
fd
ef
f8
f5
f6
e0
e9
f9
01
00
fc
21
18
15
1b
12
0f
12
16
07
12
0e
0e
07
08
11
18
18
1d
07
ed
f7
f0
f4
f9
e2
e8
f5
fc
f7
07
0e
14
11
16
09
0b
0b
0c
16
1e
20
17
11
12
10
15
1c
11
fb
f3
f0
fa
f9
fa
ea
ee
01
01
fd
01
07
0d
0b
05
0c
09
0e
18
26
15
1b
1d
0a
14
0d
18
10
00
fc
ef
f4
fd
09
00
f2
eb
f8
ff
04
05
ff
07
fa
fe
07
03
0a
18
10
18
0d
10
13
07
05
fe
08
fc
e4
f1
f9
00
04
01
fc
fd
f7
fe
06
f9
fe
fa
fd
f9
07
02
0e
04
ff
fd
0a
0e
0d
0b
03
fc
fa
dc
e1
d2
ed
ed
05
fe
fc
00
fc
ff
04
00
01
05
fc
f7
05
0d
0f
02
08
10
10
16
0a
10
03
fc
ec
d2
d3
d4
e2
f3
fe
f5
f5
f7
f6
f5
ff
fd
fc
ff
03
ff
0a
02
0a
0a
15
1f
23
21
22
21
17
04
ea
e2
da
e0
e8
ed
ef
f2
f4
01
f6
04
07
fb
f5
03
fd
06
07
0f
03
0e
11
20
28
1d
28
17
18
fc
ed
e0
e2
db
ee
e3
e8
e2
e3
f1
05
03
f8
f9
f8
f8
f9
03
fc
10
14
19
25
23
27
28
1b
20
15
02
05
f2
ef
e7
f2
ed
e2
dd
f6
fa
07
f8
fb
00
ff
04
fb
fa
07
0f
10
1e
1e
25
2f
2a
22
26
1e
1a
0f
05
05
02
f8
fb
ee
ea
f5
ff
f8
01
fa
f9
fc
04
02
fd
09
07
0f
23
27
2e
35
36
3d
39
36
2b
28
1f
0f
10
07
09
fd
f1
f2
02
09
f8
f7
ff
02
ff
fe
11
13
15
14
1c
27
2f
37
3d
38
35
30
2d
1d
22
1d
1f
1e
23
16
fd
fc
04
01
02
08
09
fe
04
04
04
17
16
19
24
1f
33
35
27
29
32
28
2a
20
22
20
21
20
22
15
02
06
03
ff
05
03
fa
fc
07
fe
f5
02
10
17
22
25
26
2a
34
30
38
34
29
2c
1f
20
0f
0f
0d
09
07
0e
0a
fd
00
fc
01
fb
07
01
08
03
02
06
12
0d
14
11
1c
19
1a
12
1c
0d
0f
0a
07
0a
0a
0b
fd
08
07
fc
fa
02
08
0b
03
fe
0d
fd
06
0f
06
02
fa
0b
09
04
f6
f2
03
fd
08
09
0f
02
02
f9
0a
fb
fa
ff
08
0f
06
13
07
fc
f6
f9
00
f4
05
02
03
09
18
03
07
0a
07
fb
03
05
07
f4
fc
05
ff
fb
04
0b
fe
02
06
01
07
06
fb
04
00
06
f9
13
0a
03
08
0c
0d
07
0e
07
0b
f5
03
07
0e
0e
05
00
fd
03
0c
0e
0d
f8
07
0b
ff
f8
0e
15
18
11
22
12
16
18
22
26
1a
10
15
03
05
12
10
0f
f6
0a
10
fe
05
05
fe
02
01
0d
09
01
22
36
49
52
4c
4c
45
48
56
4a
3b
46
45
35
25
30
18
17
fc
05
ff
11
fe
09
ff
01
0a
07
00
19
29
3c
2d
22
24
1e
14
16
21
1c
22
26
35
3a
37
30
2a
22
13
06
01
ff
fa
f3
01
fb
f4
f1
02
02
fb
05
fb
f3
f5
e0
d5
d7
d8
d3
d6
d9
e4
f4
f5
08
1a
11
12
0b
f9
09
06
f7
02
fa
f5
f1
fa
02
02
fb
fc
f6
f4
ef
d9
c1
c4
c2
bb
d0
cb
ce
d7
e3
eb
fe
04
08
12
f3
06
ff
01
02
f6
fc
06
13
18
1a
09
fd
f5
ef
d9
cb
bb
bb
bb
c0
c0
cd
d5
d8
e3
ef
03
0f
19
03
07
fa
05
08
fd
fa
0b
15
19
1e
18
15
0f
03
f6
e1
ce
ce
c4
cb
c1
c9
cb
d2
e6
e8
02
18
04
f6
ff
03
11
f3
e8
07
17
26
2e
31
2b
1c
16
1a
10
f3
df
d9
dc
da
d1
d5
d0
dd
da
eb
ff
0b
0c
fb
0c
ff
f6
02
f8
07
20
32
3e
40
33
29
28
1f
17
fb
f1
e7
e4
e3
df
e5
dd
e0
ed
e8
f3
06
14
02
09
fa
01
fd
f3
0b
19
2f
36
38
3a
28
27
2a
20
14
0b
0e
03
09
ff
f4
ea
ee
e1
e8
f6
06
17
f9
05
0c
0a
f9
f6
06
19
30
33
2d
22
19
18
15
13
0c
05
14
0f
0d
0d
fb
ef
e6
e8
ed
04
08
0f
fc
08
0c
0a
f3
f3
0a
0d
1f
21
1b
0b
04
04
0a
fb
fa
fe
fb
0e
0d
00
ec
ea
e6
e0
f8
02
15
10
0d
07
07
01
f7
e8
fb
0d
17
1f
0d
03
0d
0b
16
04
fc
ff
03
0f
0e
00
f0
e5
e1
ec
fc
11
1c
1f
ff
03
01
09
00
fa
04
0d
1e
0f
10
1d
23
24
1b
0a
12
00
02
0d
0f
09
ee
ee
ff
06
04
12
16
10
00
04
04
0a
00
f6
01
13
12
16
23
2a
31
18
15
10
07
05
00
fe
07
fb
ef
ef
fb
06
0b
11
0e
0c
13
f4
01
0c
0d
fe
08
1f
22
22
28
1c
0a
04
00
fa
f5
01
ff
00
fc
ee
df
ee
00
09
14
1f
0d
06
f2
07
09
0a
13
02
17
1a
17
1b
12
fb
f7
f5
fa
f9
f6
f7
f1
f0
e0
df
d8
e5
02
0f
15
16
01
ff
fa
0a
04
f9
fd
fc
fe
0c
06
06
ff
fc
fc
02
04
0a
00
ff
f8
ed
db
cd
c8
e2
f6
01
0e
10
08
fa
03
fd
fa
0d
06
0f
04
02
14
0b
0e
07
0c
0d
0b
11
06
0b
f8
ee
d9
cf
db
d3
ea
09
10
20
05
0d
fc
08
ff
03
03
05
0c
06
0c
14
15
15
11
12
08
0a
0b
0e
04
fe
e7
d9
da
ea
f4
0e
1a
12
06
0a
ff
ff
fe
0a
02
06
fe
05
0b
04
0a
0a
15
17
11
1b
0f
16
12
00
f8
f2
e9
f4
ff
07
12
10
0c
03
fe
fb
fe
fe
f6
ef
02
fc
09
09
0d
14
1e
21
2a
27
1f
29
22
1d
0f
09
01
f8
eb
f5
0d
10
f7
fb
06
02
0b
10
0c
0a
0b
fb
04
fb
12
1d
24
35
3d
3a
37
38
30
28
20
01
08
ef
da
e8
fb
0b
0f
fd
04
10
fa
f8
04
fc
02
03
f4
f4
00
05
13
16
21
1b
1e
0f
18
13
fc
fa
f8
e9
e9
e8
03
fa
09
f5
10
00
02
04
fe
06
fe
0d
f6
ff
ff
00
04
fa
fc
ff
02
03
fe
fb
f5
fb
f2
f9
00
fb
04
13
01
fe
eb
ff
fd
fc
02
05
1a
0d
f7
08
fb
f4
00
0e
07
fb
0d
18
16
19
07
14
0d
03
fa
04
09
f3
f6
ff
04
ff
0c
ff
01
02
fb
f1
01
fe
01
0c
01
0b
13
01
0a
09
0c
0a
1a
19
03
03
fd
01
07
03
f9
f7
01
ff
05
fa
00
06
04
06
fe
fb
05
03
05
03
02
fa
09
03
00
02
05
04
fe
ff
02
01
ff
07
06
07
f9
fc
01
02
01
ff
f8
fb
05
fe
06
fe
01
fd
fa
fa
fe
fc
00
fb
fb
f2
fb
f9
fa
02
06
ff
fd
00
fb
04
04
06
fc
08
02
fe
04
f9
f7
02
fe
f8
ef
f4
fb
f4
ef
f8
f7
fd
05
f4
02
f4
05
04
07
04
01
fd
fa
03
08
04
f7
ff
f9
f6
e3
e2
dd
d2
dc
db
dc
de
d4
da
dd
e5
e9
f4
ee
ee
fc
01
fe
00
f8
09
01
05
f4
08
02
fd
e3
e2
be
b1
b1
b5
ad
b1
a9
a8
a5
ad
b1
b7
c1
cb
d8
e2
f2
f4
07
01
02
fa
fe
fc
ff
f9
02
01
f6
e4
dd
d5
dd
dd
d6
e0
d6
d4
cc
d3
cc
ce
d1
db
db
df
e2
eb
fb
f6
ff
05
ff
07
ff
0a
07
01
04
01
ff
08
f4
eb
e5
db
dc
e0
d6
d9
e6
e3
e8
eb
ea
e8
e8
e4
ef
04
fb
03
ff
07
0e
13
08
0b
04
0b
0f
05
fa
ee
ec
df
db
ce
d0
d4
ce
d9
e3
f1
ea
f7
f2
f5
e8
04
03
03
00
06
05
0b
04
11
10
12
13
0d
13
08
f9
ea
d2
d1
d4
ca
d9
d4
e1
eb
e3
f3
ef
ef
e8
f6
fa
fa
06
01
07
10
0f
07
18
19
20
1a
11
0f
0e
fd
f3
e2
e5
e5
dd
da
dc
dc
df
eb
ec
e8
f1
ef
00
01
08
05
0a
0d
0d
1b
21
28
2a
1e
27
22
22
13
fa
f5
ed
f0
e5
e0
e1
e6
e4
e9
f2
f7
f1
f1
f8
fd
05
fc
18
18
0d
19
1e
31
2c
2d
30
25
2f
22
0b
04
f4
f3
f5
f8
e7
ef
eb
f1
f9
fb
ed
e2
f7
06
f6
05
0a
1a
19
1f
22
2a
31
31
2d
38
2d
1f
1b
0e
19
11
0f
0b
ff
ef
f1
ed
f0
f9
ea
e6
f5
f9
05
04
0d
18
13
21
1f
2f
26
2b
29
1a
16
1e
11
1d
20
25
28
1e
12
fa
fb
e9
e6
e9
ec
dd
f7
ff
f6
fd
14
12
0e
19
1e
15
12
0a
11
06
0b
fd
fd
04
0c
1d
22
10
0c
f7
ea
f2
ee
ea
dd
e5
f9
02
f5
05
14
1e
1a
18
10
07
04
fb
fb
f8
f9
f2
f2
f3
02
0a
0c
01
fb
f5
ea
ee
f9
ef
e1
e9
ef
ff
02
05
15
18
0b
0b
00
02
06
03
05
03
04
fb
f9
f2
07
04
0a
fd
f8
e7
f9
fb
f6
f8
f2
ea
fd
06
02
0b
13
14
07
00
fe
fb
07
05
14
04
fe
fc
fa
02
fa
fd
fd
f5
f6
f7
fa
fa
0a
fb
e5
f0
ff
fd
f9
01
01
0c
fa
fc
00
03
00
fe
fb
f7
fa
f5
f8
fb
f3
fc
f8
f5
e0
ea
f8
fe
08
07
ec
f7
f7
fc
f7
03
f8
fd
f4
fc
01
f8
f6
f1
e7
e8
f2
ef
f1
ea
f5
f2
ec
dd
de
e1
f0
f0
07
04
f1
f8
f8
fb
f9
f8
f9
08
f8
f9
03
fe
f8
ee
f5
ec
f9
fe
04
f7
fe
f6
e1
de
cf
d9
df
ee
f3
f5
fa
03
03
f6
09
03
06
00
fd
f6
04
fe
f8
f6
f5
fd
07
10
08
06
07
00
ed
da
d4
db
e2
f0
ee
eb
e8
fa
f6
04
fa
fa
01
05
f9
03
ff
f9
fb
ff
05
03
06
0b
16
14
08
03
ee
e6
e4
e4
f1
e4
f0
e7
e1
f6
f8
fb
02
fc
f9
07
fb
fd
fc
03
fc
09
07
03
0a
0a
18
0d
0d
0f
01
fb
ee
f2
eb
ec
e9
e5
f6
05
fa
07
04
fe
00
fe
04
ff
fd
01
0b
05
10
19
15
1f
1c
25
16
0e
0f
0b
04
fc
fc
fa
e2
e8
f8
04
09
f7
f9
f6
f9
01
fc
06
00
00
10
19
20
29
2a
36
32
36
2d
25
2b
1e
16
08
15
08
fe
f1
f4
ff
fa
05
fb
07
01
f9
04
0a
0c
1a
1e
15
21
33
38
38
3a
38
3c
2c
2b
26
24
19
28
1e
15
fc
06
fc
04
03
01
fc
08
05
fe
0f
18
19
1e
27
2e
2b
38
35
2c
31
39
2f
2c
22
1f
19
20
20
0f
05
08
0c
09
fe
00
04
ff
f6
f9
f8
ff
12
19
26
2e
33
30
35
33
31
34
27
2c
23
23
16
1a
0c
13
00
fd
fc
09
fd
00
03
fa
00
fa
07
fe
f8
01
07
15
0d
0c
16
17
18
21
12
15
15
04
07
04
f8
fb
03
09
03
03
ff
f5
00
0c
13
08
10
fb
06
08
08
05
09
0b
17
f4
03
07
0f
07
06
08
02
0d
ff
02
07
04
06
07
00
08
09
0a
04
f9
fa
0d
0d
0c
0a
07
01
0e
14
02
f5
01
03
0b
06
0f
13
fc
09
04
fd
09
fc
03
05
09
12
08
08
0f
fe
05
01
01
fa
0e
14
05
08
02
19
11
0b
04
0a
ff
02
09
0b
13
06
fb
03
01
0e
ff
05
f7
f2
0c
06
03
ff
16
1d
1e
21
22
19
0b
15
18
15
26
06
0e
13
05
19
14
f7
ff
03
ff
fa
05
05
0d
05
0e
07
09
20
35
43
47
4f
4c
4a
61
56
54
50
4b
51
36
2d
2e
16
04
02
16
0d
0a
fa
03
f0
06
0b
fd
01
10
25
2c
2b
2c
1d
1d
1c
10
1b
1e
26
2c
38
38
29
24
28
27
0c
0b
0a
fa
f0
06
fe
08
f4
fb
f6
07
01
0a
09
04
f2
ed
e5
dc
d7
dd
de
e4
ea
fd
00
10
16
1e
10
0e
01
06
f3
f9
04
f7
f6
f3
fa
04
fb
f8
f3
f8
ef
e6
da
cf
c5
b9
c5
c5
d7
dc
dd
e8
fc
06
1c
05
13
f6
08
02
f7
07
eb
f7
03
10
01
fe
fb
01
ef
e3
dd
c2
b9
b7
c1
c5
c7
db
d8
f0
ef
fc
0b
1b
1a
06
fb
02
06
01
fc
f5
03
10
0e
0b
13
00
03
f2
e3
d7
cc
c9
d5
d2
d0
d1
db
e2
f2
fc
0b
16
0f
f8
0a
03
04
fd
eb
f4
05
0f
20
20
1a
11
0a
17
ff
ef
d9
dc
e0
dc
da
d9
da
e0
f1
f9
ff
1d
02
0f
fe
0c
fb
fc
e7
f0
07
23
29
27
21
23
2a
28
16
0d
05
fb
f7
f4
ea
e7
ed
e9
ef
fa
f5
0f
21
0c
fe
00
07
03
ef
f4
0b
1b
33
2f
2b
2f
2e
34
2d
14
13
16
21
1d
0c
00
f3
fd
ec
f9
fa
0f
11
03
06
01
fc
01
e6
f4
14
20
29
2c
2b
20
25
2f
20
1c
1b
29
30
29
1f
06
f5
f9
ee
02
0a
15
16
12
fa
07
fc
ea
e6
fc
15
25
1a
16
1b
19
1a
1d
1b
0f
18
24
27
23
18
fe
ef
f3
f5
fa
19
21
1b
f9
01
08
03
e6
ea
f2
12
0e
0b
07
0f
17
1c
23
20
12
11
18
17
20
0e
ed
ed
f4
f6
f5
09
25
16
13
06
fa
fe
fc
eb
fb
10
0b
0b
10
19
23
2b
30
27
1a
17
24
1d
1e
03
ec
e7
ea
fa
00
09
23
18
08
fa
0d
07
fe
ec
05
0e
15
14
22
33
3c
36
33
29
1f
1b
20
22
16
fa
f0
ed
fe
01
0c
11
20
1c
fe
0d
03
07
0d
00
05
1e
1e
2f
2e
33
1d
18
25
26
28
1d
1a
18
06
f5
e2
e6
f7
fe
0e
1d
14
05
0d
05
08
0a
08
ff
15
13
17
28
1f
11
17
11
1f
25
21
19
17
16
03
eb
dc
e2
fb
ff
0f
0c
06
fa
0e
06
0b
08
0a
fe
00
14
14
15
14
13
0d
1b
20
26
2f
2d
24
07
f1
df
de
ea
00
0a
13
0b
0b
0c
03
06
fe
fb
08
03
00
18
15
0f
0e
14
1e
22
2f
32
3c
32
23
11
f8
df
e2
dd
f5
0b
0f
19
19
13
05
fa
01
05
0a
05
04
04
06
14
15
19
26
31
3a
3c
40
3b
2f
12
06
f2
f5
f3
f5
0d
1e
15
01
0f
fb
0f
fb
fe
0e
0a
04
16
0e
18
1f
23
28
3d
40
43
41
35
2d
1d
0d
02
09
06
05
0a
17
0e
05
0f
0c
08
03
0e
0f
0a
09
07
0e
11
1b
24
32
35
4b
48
48
47
37
31
28
17
0b
09
fa
ff
14
11
0e
f8
05
0e
02
09
f7
fe
0c
05
0c
10
12
27
3b
3c
4b
58
55
4f
44
36
28
17
01
fc
e8
f2
0d
0b
0e
fc
0a
03
fd
f4
12
0e
08
ff
ee
f8
00
18
18
23
35
2c
2d
2a
24
16
06
fb
f5
f4
db
e4
05
04
00
fe
0d
02
f6
0c
02
06
07
00
e8
e4
ea
f0
f8
fe
fc
06
f4
f2
fc
fa
e8
e4
e3
ef
ef
ed
fa
ff
fb
ff
ef
f6
03
0c
f9
f9
0d
03
fb
00
e8
e6
e8
e7
e7
dd
e3
e9
f5
f3
ef
ec
f6
ee
fc
00
08
02
fe
fd
08
fc
14
13
07
1a
fe
fd
08
07
15
07
f7
f9
f5
e5
e9
f4
f8
f0
03
02
07
04
05
03
06
09
06
ff
04
04
fe
06
00
0a
01
06
fd
03
f9
04
fa
fe
02
fa
fd
0c
05
06
01
fd
fa
fc
07
fe
fe
fb
f9
fe
06
f8
fb
fd
f7
f7
08
0c
f6
02
fa
fe
f9
02
00
fb
ff
00
f8
f3
01
f3
fb
07
fe
05
fe
05
f4
fe
0e
09
f8
f7
f2
f9
fc
06
f6
f6
02
fa
03
f6
f5
ef
e3
e0
e1
e1
df
f0
ea
f3
fd
01
08
f7
fe
08
01
fe
f9
02
f3
f4
fe
fe
ff
fd
00
e9
dc
cf
d1
c6
d2
ce
d9
d7
d5
dd
e6
f3
f4
ed
f0
05
ff
05
f4
fe
f8
ff
f8
fc
f6
ff
f5
f5
ec
ef
f3
e6
eb
e9
eb
e7
ec
ea
ee
f1
f4
e9
ed
f2
f9
02
08
fb
03
fc
fc
fe
ff
f8
fa
fa
f1
f6
fe
f6
fc
ee
ec
f4
f2
ed
e6
e5
ea
e9
f1
f8
fb
f8
f7
f9
f9
03
02
f9
f6
04
ff
fb
fd
ea
e9
fa
f6
f3
f7
f2
f8
fa
fa
fa
ec
f6
f1
f2
ee
eb
fe
00
f6
f7
04
07
02
00
f6
f9
fc
fd
ef
e7
f0
f4
f1
f7
07
fb
0a
09
07
0a
03
02
fc
04
f8
f2
f7
fc
fa
fc
04
02
01
02
04
06
00
fc
ee
ea
f4
f1
f9
f9
03
07
0c
0d
09
01
05
fe
07
fb
04
06
0a
09
fd
02
f9
f8
fc
f8
03
f8
f9
ee
ef
ed
ec
f6
eb
f6
fc
fc
ff
ff
ff
03
02
ff
fc
fb
05
ff
04
0a
ff
08
fd
09
0a
03
f8
02
f4
f6
f5
e9
f4
ef
f1
f2
f7
07
fc
fc
02
02
00
01
06
08
11
0b
0e
0d
00
00
05
04
0a
0b
f3
f8
f8
f7
f2
eb
f9
ef
f8
f0
fd
fc
01
05
fd
01
00
07
07
13
18
1b
17
0f
0a
06
f9
fb
01
fc
f8
fb
fc
f3
ea
fa
f8
ef
f4
ec
f3
f1
f4
ff
f3
fa
03
fd
07
18
19
10
18
16
12
00
fb
04
fc
fa
06
02
fd
ee
f0
f5
f2
ef
f0
ee
ed
e2
ec
ef
f3
fa
f4
ed
02
05
17
12
0c
16
0e
04
ff
09
08
01
f8
f8
f4
f6
ee
f7
f9
f2
f2
e2
e5
ee
e5
f4
fe
fd
fb
ec
f8
06
09
16
10
09
14
04
ff
0a
04
06
f6
f7
01
fe
f7
fa
fc
fb
02
f3
ee
ee
e5
ee
f3
fe
f8
eb
ea
05
0c
06
03
11
16
14
0b
02
f6
01
03
fe
00
fb
f4
fa
fd
fb
ff
f0
f7
ee
ed
f2
f2
f4
e7
e2
e4
f5
fc
04
fe
01
03
0c
fe
fe
f9
02
09
05
f8
f4
e9
f5
f5
f4
fc
f0
f1
e5
e4
eb
eb
f1
da
d8
d8
e7
e7
f8
f1
02
02
f7
ff
01
f5
fe
fe
ff
01
ed
ed
f3
f4
ee
ea
ec
f4
e8
f1
f2
ed
e9
de
d7
d7
e3
f8
ef
f2
f9
f4
f9
f5
f4
01
02
03
02
fb
e1
fe
fc
e7
ee
ef
f6
fe
f6
f4
f3
fc
f5
eb
ec
ec
f3
f8
fa
f0
f9
f5
ed
ed
ed
f6
01
f2
ff
f4
f0
f1
f3
f3
f1
f3
fe
fc
fa
fd
fd
03
fe
f4
f4
03
0c
00
00
f6
f3
ef
ff
e8
ed
f5
04
f8
03
f9
f5
f0
f8
ef
f2
f0
f6
fb
f3
f6
f3
fc
00
fc
f5
00
0c
fb
03
f3
f4
f7
f9
e8
ec
f8
fe
04
01
04
fc
e6
ed
ed
f2
e9
e8
e8
eb
e9
ec
f9
f9
f6
05
08
11
0d
06
fd
fe
ff
f9
ea
f1
03
03
fb
fe
fe
fa
f7
f7
ee
e7
f3
e7
e6
f0
f6
f2
01
04
04
0a
0d
15
10
fd
fb
fa
f4
f0
f5
f6
f6
06
fc
f9
fd
f7
f9
f7
f3
f9
f0
f3
f8
fd
f2
02
f6
04
fe
06
01
0f
0c
04
07
f7
f8
f7
f8
01
fa
f9
07
ff
f6
01
f2
f1
f7
f1
f4
f7
f1
f7
ef
fb
ec
ed
f4
ff
f8
f8
06
04
fb
fb
00
f0
fe
fd
fb
06
05
fd
fa
02
03
f0
fc
f9
fe
ee
ec
f6
e7
df
ea
e7
ed
ed
fd
f9
f9
fc
fb
f5
fc
fa
f1
fb
05
fc
03
04
02
03
03
fc
ec
ea
ef
ef
ed
df
e4
e1
e4
eb
e3
e7
e6
f0
e5
e7
f1
08
f6
f7
03
03
01
f9
06
06
fc
02
08
ff
fb
ef
e2
e8
d8
cd
c9
d4
d1
cb
cf
d4
d6
e0
ea
f5
fa
f8
fd
00
08
fe
f5
05
fb
00
01
fa
00
04
04
04
fb
f5
f9
f6
f0
f2
f3
f4
fa
fc
01
02
f7
fc
fb
fe
02
03
ff
fa
fc
f7
fb
03
02
f8
f5
fc
00
04
04
fb
f4
f5
01
f8
fa
00
f1
fe
08
0a
01
f3
f6
fd
fa
f5
07
fd
f8
ff
06
f9
08
03
f9
fe
fd
07
05
fa
02
05
03
f4
f1
f7
fb
00
0d
0d
07
ff
f8
f3
f9
fb
06
f4
f1
f2
02
02
03
fe
f5
f7
05
f9
03
fb
f2
fb
f6
ff
06
0b
0e
1e
06
04
09
05
06
fa
05
03
ed
f8
fa
f0
fb
05
04
05
ff
f7
fd
ff
01
0c
21
30
2e
36
3d
49
36
29
32
1e
1f
0d
16
02
10
02
f7
06
02
00
fd
03
04
0a
01
f2
f9
0a
1b
21
24
19
14
fa
02
ec
f0
ff
fa
fb
0b
04
04
04
04
01
f9
f4
ff
ff
09
08
03
f6
f8
0b
0d
06
0a
00
f5
e9
e4
db
de
de
dd
e0
e3
e4
dd
f6
f0
fd
fb
f5
fb
f3
f8
06
06
f7
f3
fe
08
03
06
02
fe
f0
f5
f5
f0
f2
fb
f0
f3
f9
f2
f5
f1
f3
f4
ff
08
07
0b
05
fb
0e
05
03
0f
fd
18
1b
06
fa
f9
f9
03
0d
06
16
0c
0e
0e
15
0d
0a
02
00
fb
f8
f8
f7
fc
06
f7
04
f5
02
00
00
15
0b
f1
e5
e4
f4
fb
08
09
11
10
13
15
19
1b
13
08
0a
02
07
fa
f9
fa
0a
05
fd
03
fd
ff
09
0c
ff
f1
ef
e1
eb
f4
03
0e
0c
11
0a
17
13
18
11
13
0a
10
05
08
fc
f5
fb
03
fe
0b
fe
02
0a
0b
fb
f6
e5
e9
e8
fc
fd
08
13
0d
11
1a
1a
19
1d
1f
17
12
0f
0a
ff
f4
00
05
fb
fc
06
0e
f4
11
05
fa
ea
f2
f3
fd
01
14
0c
19
18
16
15
27
26
2b
25
1e
1d
0d
00
03
f8
07
f8
fe
00
fa
fc
0e
03
f1
f6
f2
f1
f4
04
fc
04
11
0b
13
11
19
26
27
28
19
20
10
07
00
f1
f9
f8
f4
02
0f
10
1a
fa
f6
f8
f4
ef
f4
ee
f7
fa
0d
0e
11
01
16
1e
29
26
24
24
1a
03
fd
fb
03
01
00
08
05
fe
1b
f6
f9
f8
fa
fd
f0
ee
f6
f4
08
07
04
fd
0c
1c
25
29
23
24
1c
12
05
0c
02
05
08
04
fc
08
1c
05
08
04
fa
f2
f7
ec
f0
00
00
08
fc
f9
02
0e
21
18
1f
1c
1a
ff
01
02
f6
f6
fb
01
f3
0b
10
02
07
fe
03
fc
01
ea
f1
ee
01
f4
e8
e7
ef
0c
0b
0e
16
1b
14
15
05
06
00
ff
e7
f4
03
ff
0d
f9
fa
ef
ef
f9
f1
ed
e7
f6
ff
f1
f0
d9
ee
f0
0b
03
08
13
13
1f
08
01
01
03
ee
02
fb
04
07
fa
eb
e5
e4
e4
f5
ef
f7
f7
fa
fb
e6
e8
e9
fc
f7
ff
f8
00
0b
0c
08
01
f1
00
fa
ff
05
05
0e
fd
ef
ef
ee
f1
fc
fb
05
0a
13
08
09
ff
02
02
f9
f7
f0
f0
f7
ff
0c
0d
f1
02
02
fd
04
17
1b
06
f1
e8
e8
f3
f9
01
0c
08
10
15
10
04
0e
09
07
fa
f1
f7
f1
00
1e
ff
04
02
f7
f4
01
f0
14
05
ea
e4
e4
e3
ec
f5
f8
02
12
09
0d
0c
08
0a
04
fd
f1
fc
ed
fb
19
0e
fb
05
fb
06
f9
fc
13
f9
ea
eb
e1
ec
fa
f9
04
11
0c
18
1c
19
10
17
03
ff
fb
ef
f2
00
05
fa
01
f3
fd
fa
04
0d
0c
f8
f8
eb
ed
ef
f8
fe
0b
0f
11
1f
17
17
14
16
10
fe
ff
f3
fb
05
01
07
f5
ff
f6
fb
05
f5
10
07
f3
f7
f7
ed
f4
fb
fd
06
fe
05
04
08
01
fe
fe
fc
ef
f2
fd
0e
08
03
ff
0e
f4
02
0b
03
05
18
07
04
ee
ed
f1
e8
e2
e9
eb
df
e4
ef
ed
f3
fb
f5
01
ff
0e
08
01
eb
04
ef
fc
08
08
03
f3
0a
0f
0d
05
04
fd
f4
ec
e7
eb
f3
f7
f4
ee
f3
11
1a
0d
fb
04
fe
07
fe
f6
fe
f7
f7
fb
f8
f1
f2
fe
0d
05
16
16
29
17
13
08
16
11
11
16
16
1f
05
ed
f1
f5
09
f6
02
07
00
f1
08
0a
fa
fb
f9
01
02
04
f7
02
fb
00
00
ed
e5
ee
ee
f7
ee
03
08
fd
fd
06
06
f3
01
ff
f9
fe
0f
04
f8
f8
f0
f8
f7
ed
ff
00
f7
f0
f7
f0
f0
f7
f0
fe
f5
f9
00
0b
03
03
06
00
f1
03
fc
f9
03
04
00
03
fe
fd
06
fa
f9
05
01
fa
07
02
0a
05
f8
07
f3
06
0b
06
fe
fe
f6
fb
04
fc
05
ff
fa
f4
01
fe
02
f6
f7
f6
fc
02
fd
f7
05
04
04
04
f4
f3
fe
fa
fe
0a
fd
04
fe
f8
fe
0a
08
00
fc
f3
fe
04
fe
fc
01
fb
05
fb
fd
e8
ee
ee
e9
e2
db
ed
ee
f7
fd
00
f8
ff
04
09
08
03
07
fc
f7
f8
00
fb
fe
fe
f5
f6
e3
d6
d2
d6
cb
c4
c4
da
d2
d3
da
e3
e7
ee
f3
fe
03
fb
01
fb
04
02
04
01
f7
fc
f8
fb
f7
f4
e6
e8
de
ec
f2
e8
eb
ea
f0
e5
f3
eb
ef
ed
f0
fc
ff
f9
07
06
06
05
fc
fb
f6
f8
f4
f4
f8
fc
02
f5
f2
f5
ec
e7
e9
ee
f1
f2
ea
f5
f6
fb
fc
f6
01
03
08
0a
fa
f2
f8
06
01
f4
ef
f4
fb
f5
f9
f9
fc
f4
fa
f1
fe
f8
f8
fb
f6
f7
f3
fa
f4
f2
f7
ff
07
fb
06
ff
f6
00
f2
ed
e8
f9
ef
f2
f9
fd
fc
04
00
01
0e
06
09
0d
08
05
f8
fc
03
02
f9
06
00
08
f9
f7
02
f5
f6
f1
f7
ef
ed
f8
f9
fe
fd
08
01
01
0d
05
0d
05
07
04
09
02
fb
f3
f2
fd
03
09
02
fe
fe
fe
f8
ed
f2
e9
e5
f3
f6
f5
fa
04
03
f9
fa
fb
07
03
0e
0d
03
05
03
07
f7
f7
06
fd
fd
f8
f4
ff
f9
f7
f5
f1
ea
ef
f7
02
06
09
fc
04
fc
01
02
0a
0c
0d
0c
0b
12
09
02
fc
06
06
04
fd
00
00
ed
ea
f3
fa
eb
f0
fe
fe
10
07
0d
09
07
02
0c
02
0e
0c
19
12
0d
08
06
01
04
fe
fe
ff
03
f6
ff
e7
f9
f0
ef
f9
fe
03
06
0c
01
0d
0f
07
09
03
0b
11
16
0e
11
0f
fd
fe
03
fc
fa
08
02
f0
e7
f2
fa
f6
f0
fb
f8
f0
fa
fd
fb
01
01
03
fa
fe
10
0e
10
16
15
0e
04
00
08
09
04
03
fc
fb
eb
f4
f3
fd
fb
f9
f1
ef
ec
f7
f3
fe
00
fe
f8
f4
01
08
0d
05
0a
0a
02
fd
06
fb
00
fc
f9
fc
f5
ec
03
04
f8
f7
f8
f1
f9
fa
ff
05
06
ff
e9
f7
fc
0d
0c
0a
15
07
03
0b
08
f4
ff
04
00
f7
fb
f4
fd
fa
fd
fd
f4
e8
f3
ed
f9
fa
00
f0
e4
f1
f0
0a
03
ff
03
07
0e
0f
0a
f4
06
03
fb
fb
ee
ed
fc
ed
f5
e9
e7
e5
ee
e0
ec
ee
f6
e5
db
d9
f2
fd
01
f7
f7
01
fa
fb
05
fd
01
f7
01
f3
ea
fa
f0
f3
f0
ec
e6
ea
ea
e8
e9
f5
f6
e1
df
df
ed
f3
ef
f1
f2
ed
fa
ef
fd
03
fd
01
f9
03
ea
f2
e9
ee
e0
ed
ed
f0
f8
f6
01
08
09
02
f7
fb
fd
01
03
f3
f5
f7
f8
f4
f3
07
01
f6
ff
f8
f1
e8
ee
ef
ec
ea
ec
fe
fd
03
09
0e
07
0c
00
07
0d
0a
fa
fe
f3
fb
f3
ee
f0
f3
f9
f8
08
07
f5
eb
f2
f0
e8
ea
f2
f1
f8
fc
f8
06
05
01
05
ff
06
04
fc
f6
f1
f4
f9
e7
ef
f1
01
03
06
08
f8
f5
f1
ea
e9
e8
f5
ee
f4
fc
fd
fb
02
09
04
07
04
05
fb
fa
f9
f1
02
e9
ee
f8
fd
f7
f5
f4
f0
eb
fb
f9
f1
f1
f0
00
03
07
06
11
10
14
15
05
04
01
f9
f9
f4
f5
f9
ef
fe
fe
05
07
fe
f8
fa
e8
f3
f4
fd
f4
f7
f9
03
03
03
12
07
09
0a
07
08
08
fd
f9
fb
f3
ea
fa
fd
f4
f5
fb
09
01
f5
f8
ef
05
fc
f8
ff
f8
f0
fc
f7
f0
f7
fc
fe
f2
f7
06
04
fd
ff
05
f0
fd
fa
fb
01
fe
f9
f9
fe
f6
f1
ec
f5
f9
f4
ea
e9
ef
e7
e7
ec
e5
e5
f8
ff
f3
f1
f6
fd
fe
fa
ff
f9
02
08
fb
fc
03
09
07
f5
f0
e4
e4
e3
e7
df
e6
e7
e4
df
dd
e1
dd
e2
e8
f0
f5
01
fc
f5
05
fe
fc
fc
fd
fc
01
02
09
fc
f5
f1
e9
e8
d3
c8
d1
ce
c9
d5
ca
c9
de
dc
e4
f0
f7
06
04
fe
fd
05
01
fb
01
fd
07
f8
fa
ff
f9
ff
01
f6
03
04
04
f3
fe
02
01
fa
01
02
fd
01
f7
fe
f9
fa
ff
04
07
04
04
fc
ff
f6
f5
00
ff
fc
fd
f7
ff
f0
fc
fe
f6
ee
02
f7
f9
f2
f0
f3
f7
05
f8
01
05
f5
f6
06
ff
fc
05
0a
f6
f5
04
f9
04
fa
fb
fc
fb
e5
ef
f2
00
01
00
08
f5
f6
03
f7
f0
fb
f9
ef
f2
f5
06
fe
f1
f7
01
0a
08
f8
ff
04
ff
f1
fa
01
03
11
13
0a
00
03
13
fa
f6
f6
fa
fd
fb
ec
ed
eb
fd
01
fb
f9
fd
f5
fd
fa
01
02
19
29
2b
35
37
36
32
23
23
21
15
12
ff
03
09
fb
04
fa
f2
f1
fc
04
ff
03
fc
f8
00
08
14
14
16
1a
08
00
f6
f0
f1
f9
f9
04
03
06
05
0c
fe
03
f6
f5
06
f8
f1
05
f5
fc
02
00
ff
08
fe
f8
f4
e2
e1
e0
d7
dd
da
d7
e4
de
ee
ed
fb
f6
ff
f9
f4
f7
03
ff
06
f1
fc
fc
01
01
0b
ff
05
f9
ef
ef
ec
e8
dc
de
d8
d6
e0
e1
e0
ed
e9
f6
fa
fd
f4
f9
eb
05
fd
f1
fb
03
06
1c
0c
07
f5
fb
f8
fc
fa
ee
f9
ef
ed
ed
e8
f3
e9
f3
f1
fb
fa
fc
f5
04
04
03
02
ff
07
07
0f
13
f7
ef
ec
ed
fb
f6
fa
f6
ee
f8
f3
ee
f2
f6
f2
fa
fa
ff
fb
fa
ff
05
00
ff
f2
f7
00
0e
11
04
f9
f0
ee
ea
f5
fc
f8
f9
ef
ed
df
eb
f0
f6
fa
ff
fb
ff
ff
fc
f9
ff
fd
fb
0a
fe
05
04
04
01
eb
e6
f3
e9
ea
f9
f8
ee
f0
e2
ea
e8
ef
f6
07
09
08
02
03
03
fc
fe
0e
f6
0b
10
0d
02
0c
11
fb
ec
f2
f2
ef
f7
f9
f0
f1
e7
e5
ee
f9
fb
00
0d
14
19
09
fd
fa
f3
07
f2
fe
02
00
07
15
05
f8
f4
f0
f1
ec
e9
f0
eb
e2
f0
df
e7
ea
f3
fd
10
17
09
09
03
f6
ed
04
fd
05
03
04
04
16
03
f3
f2
f5
e8
df
e3
ea
ea
eb
e8
e8
dc
ee
f8
06
01
0f
12
0a
00
fa
fb
fc
f6
f5
07
05
0e
0f
ff
ff
f8
f1
eb
df
e0
ea
e7
f2
ec
e1
e6
e3
f8
fe
07
0f
14
0d
0d
fc
08
f2
f7
ff
03
fd
f9
18
06
fe
ff
f8
eb
de
e0
e6
e3
e7
eb
de
d7
e8
e8
fa
fd
03
0a
0e
05
f6
f8
f9
f2
f8
f0
04
07
0a
05
ff
05
fb
e5
eb
e1
e7
e3
e5
df
d7
d6
e6
e8
f3
02
0f
05
04
0a
f9
fc
01
01
f0
e9
fd
04
15
0b
f2
f7
ee
ef
da
d9
e3
e1
df
df
d4
cc
d4
e0
f5
f7
01
0d
13
14
09
f0
f7
fe
fe
f5
00
06
07
ff
ec
f7
ec
e7
d8
e1
d7
db
dd
d7
d9
cc
de
e1
ed
f4
f7
06
12
05
fd
08
fc
00
ed
ff
02
0f
0b
f9
f6
f0
e5
ea
eb
eb
de
ee
e8
ee
d7
dd
ed
f3
fe
f4
fa
fb
05
0d
12
fb
fa
00
fc
fa
ff
18
18
08
f1
f4
e4
e4
ec
ea
e9
f3
ea
ed
e1
ea
f7
fe
06
fe
fd
fe
f4
ff
1d
07
00
08
ed
fc
f9
f6
10
fc
f2
ec
e4
e4
e6
e7
e0
e1
e6
f0
e5
fa
fe
fd
03
fc
02
f9
f4
fd
1e
0b
07
04
fc
fb
f8
05
0c
fc
f0
e4
e8
e3
dc
e5
d9
db
eb
e8
ee
f4
05
06
03
07
00
f5
f8
0a
0f
ff
04
fa
01
00
02
fb
16
02
ee
f4
e3
de
de
e0
e8
ea
ec
f1
f0
fe
00
06
fc
fd
07
f7
00
13
09
fa
f6
fe
00
fc
02
f6
10
fa
fb
f3
ea
eb
e7
e3
ea
e1
df
e5
f1
e8
f7
fd
02
fb
f5
f9
0a
10
07
fa
fd
fe
f2
05
03
fb
0e
18
02
fb
ee
f4
eb
dd
dc
d7
da
cf
d8
e4
e3
e5
f6
f1
f8
f3
05
0d
0f
f5
f5
f6
01
fc
f9
fb
f4
0a
0f
02
f8
f2
f0
f0
e2
e5
d8
df
dd
dd
e9
ee
f3
06
02
fb
01
09
f7
fb
04
f5
00
f9
fe
f2
ec
f7
06
1a
16
11
13
0b
0d
fe
03
0d
0a
05
08
08
1b
06
00
f3
ff
fb
fa
05
f0
f8
fc
f7
fd
f1
ee
f2
f9
fc
0e
0b
14
1c
1a
13
18
19
16
0f
19
0b
01
fb
01
f0
f9
f4
f2
ff
f6
f8
f4
07
f9
fc
08
0b
fe
ed
f2
f3
f2
fd
f0
01
02
04
f3
01
01
f0
fc
ff
01
fa
00
f5
07
02
07
f6
01
07
0b
0a
0e
08
fb
fc
0f
0a
0e
04
0f
08
00
ff
01
06
08
03
05
02
02
0a
06
05
0e
0d
10
11
01
01
0b
02
08
fe
0d
0e
02
0c
0f
0a
08
08
00
02
fc
03
06
04
07
07
fd
05
fb
08
08
03
07
08
06
08
06
05
0c
0a
02
03
ff
fc
03
02
05
fc
fb
f5
fc
ff
f1
f5
01
02
f8
fe
fc
fc
0a
01
fe
0c
01
03
03
05
0f
0b
03
fb
f6
e6
f0
e2
df
d1
d1
cf
da
d9
ca
db
dd
e6
ee
f3
fe
06
fc
ff
00
04
fd
fe
00
02
05
fe
fd
f6
e2
d2
bf
b6
a4
9d
a6
9e
a5
b0
b0
ae
bd
b8
d7
e0
ea
00
00
00
03
07
fd
09
01
09
01
02
f7
e3
d0
d4
d2
cf
d1
d2
d2
cc
cc
ca
c3
cd
d0
dc
d8
de
da
ec
fb
0b
ff
fb
04
04
0d
06
07
fe
e0
e8
eb
e9
f0
e4
ea
d7
e0
d8
d7
cf
c9
d7
d0
d6
e2
e2
e7
ea
f6
03
05
08
07
08
fd
06
fb
f5
e8
f7
f0
e8
eb
ee
dd
e1
db
d8
e0
d9
d0
dc
d2
db
e9
e9
ef
ed
f2
fe
03
05
03
0e
08
fc
fc
f5
f9
f4
f7
ea
ef
ec
f5
ef
fd
ec
f0
e8
e7
dc
da
e0
e5
ed
e8
e4
ec
f9
00
fc
00
0d
07
01
f2
fe
fb
f4
f6
fd
03
0d
09
0a
05
04
fc
f4
ed
e0
d7
d5
dd
e5
ed
ec
e7
e7
ff
09
0b
ff
fa
fc
e9
ef
f4
f3
f6
02
00
0c
09
0c
08
09
f8
ed
e8
e2
e7
e2
dc
e2
eb
e3
de
e2
fa
fb
02
04
03
eb
ed
f6
f3
eb
f9
fd
ff
07
06
0e
06
01
fc
fa
ef
ec
e1
e2
e0
de
e8
ee
dd
e2
04
fc
04
07
fa
ef
f0
f1
e1
eb
f8
06
06
0f
11
19
0f
0e
0c
03
0b
fe
f7
ea
f5
ee
eb
ea
e2
e2
07
02
04
ff
fe
ef
f9
eb
e9
f0
f7
02
0b
11
1b
17
1c
17
0e
0c
00
04
f7
fd
f2
e4
ec
ea
d4
e1
f4
0e
fe
09
fb
f2
fc
f5
e3
f2
00
0b
13
20
15
18
15
1b
14
09
07
fe
ff
f7
f2
ec
e3
ef
d1
ea
03
06
0e
06
03
f2
f5
ec
e4
ec
fb
08
0d
15
13
0b
0d
09
0d
0e
01
09
fa
ee
eb
dd
ee
e8
da
ed
02
05
0b
0d
08
ee
f8
e9
ef
f1
ee
f4
f9
ff
04
f9
09
02
03
06
00
00
f0
e5
e4
e0
ee
de
de
03
05
05
08
01
04
ef
ef
e7
ee
de
ea
ef
ea
f5
ff
f9
00
fb
05
01
fe
ee
e7
e7
e3
db
ef
f0
e9
08
0e
fd
0f
0f
ff
ed
ec
f6
e8
e4
e6
e9
f2
f6
ef
f8
f9
f8
f3
f3
f0
e7
d4
dd
dd
e5
e8
ee
ed
0b
ff
0a
12
0d
02
f8
f6
f7
f0
ee
eb
e5
fb
f4
f5
ea
fa
f3
f9
f3
e7
e4
db
d9
e6
f1
ea
f3
f5
01
02
04
0f
0d
fb
08
fc
04
f4
f7
f4
f4
04
05
f6
03
01
fd
08
02
fa
ff
ed
f3
f2
f1
fe
f8
fb
0b
09
04
0d
00
08
f8
f9
f3
02
fa
fb
ff
0b
0e
13
19
14
19
10
0e
12
00
01
fb
fc
02
fe
fa
f8
01
00
04
fb
06
0a
fd
f4
fe
fd
05
fb
06
10
19
15
19
1d
17
17
17
13
01
02
f8
ff
01
f4
fd
fd
05
01
07
09
02
01
f7
f3
ff
01
fc
0d
0e
15
12
1b
23
21
20
16
11
12
0e
06
04
00
fe
fb
08
01
0b
00
0a
ff
fc
04
01
04
fe
fe
08
02
13
15
1a
19
20
1c
27
1b
1a
21
15
0a
12
10
08
02
06
08
0c
03
08
05
f9
ff
09
0a
00
03
09
0b
17
15
25
1e
2e
2d
2b
33
2c
25
1e
21
17
14
12
10
15
11
0e
0c
0d
fe
ff
02
0d
0d
00
0c
01
10
17
19
21
1a
1f
28
25
23
26
1c
1e
16
15
0e
0f
10
1b
10
0c
0b
04
01
0b
01
08
0f
04
15
02
06
13
0f
1a
13
1c
19
1c
11
18
19
16
1d
19
13
14
0e
0c
0e
0c
04
09
03
07
11
12
01
08
10
0d
11
0d
0a
15
10
15
14
1a
13
1a
10
13
0e
0d
0b
08
07
0c
01
00
08
ff
0a
0f
10
0e
01
fa
ff
02
05
06
02
f9
01
f7
fc
f7
f7
fa
fb
fe
fc
05
01
0a
fd
01
02
00
08
04
fd
f4
fb
f5
06
f2
f5
00
f3
f7
fb
fc
06
f3
00
f7
03
03
ed
f1
f1
ee
04
fa
f9
ef
05
fd
fc
ef
ef
fa
ff
